#include "magic_wand_model_data.h"

// We need to keep the data array aligned on some architectures.
#ifdef __has_attribute
#define HAVE_ATTRIBUTE(x) __has_attribute(x)
#else
#define HAVE_ATTRIBUTE(x) 0
#endif
#if HAVE_ATTRIBUTE(aligned) || (defined(__GNUC__) && !defined(__clang__))
#define DATA_ALIGN_ATTRIBUTE __attribute__((aligned(4)))
#else
#define DATA_ALIGN_ATTRIBUTE
#endif

const unsigned char g_magic_wand_model_data[] DATA_ALIGN_ATTRIBUTE = {
  // Paste the data of the char array in `src/model.cc` here
   0x1c, 0x00, 0x00, 0x00, 0x54, 0x46, 0x4c, 0x33, 0x14, 0x00, 0x20, 0x00,
  0x04, 0x00, 0x08, 0x00, 0x0c, 0x00, 0x10, 0x00, 0x14, 0x00, 0x00, 0x00,
  0x18, 0x00, 0x1c, 0x00, 0x14, 0x00, 0x00, 0x00, 0x03, 0x00, 0x00, 0x00,
  0x18, 0x00, 0x00, 0x00, 0x2c, 0x00, 0x00, 0x00, 0xd8, 0x00, 0x00, 0x00,
  0x2c, 0x00, 0x00, 0x00, 0x80, 0x00, 0x00, 0x00, 0x78, 0x00, 0x00, 0x00,
  0x05, 0x00, 0x00, 0x00, 0x28, 0x07, 0x00, 0x00, 0x44, 0x06, 0x00, 0x00,
  0xbc, 0x03, 0x00, 0x00, 0xf8, 0x02, 0x00, 0x00, 0xac, 0x01, 0x00, 0x00,
  0x01, 0x00, 0x00, 0x00, 0xd0, 0x00, 0x00, 0x00, 0x14, 0x00, 0x00, 0x00,
  0xdc, 0x32, 0x00, 0x00, 0xd8, 0x32, 0x00, 0x00, 0xd0, 0x31, 0x00, 0x00,
  0x1c, 0x31, 0x00, 0x00, 0x74, 0x30, 0x00, 0x00, 0xfc, 0x2f, 0x00, 0x00,
  0x90, 0x2f, 0x00, 0x00, 0x40, 0x13, 0x00, 0x00, 0xec, 0x11, 0x00, 0x00,
  0x10, 0x10, 0x00, 0x00, 0xb4, 0x07, 0x00, 0x00, 0xb0, 0x32, 0x00, 0x00,
  0xac, 0x32, 0x00, 0x00, 0xa8, 0x32, 0x00, 0x00, 0xa4, 0x32, 0x00, 0x00,
  0xa0, 0x32, 0x00, 0x00, 0x9c, 0x32, 0x00, 0x00, 0x98, 0x32, 0x00, 0x00,
  0x94, 0x32, 0x00, 0x00, 0x3c, 0x00, 0x00, 0x00, 0x00, 0x00, 0x00, 0x00,
  0x01, 0x00, 0x00, 0x00, 0x0c, 0x00, 0x00, 0x00, 0x08, 0x00, 0x0c, 0x00,
  0x04, 0x00, 0x08, 0x00, 0x08, 0x00, 0x00, 0x00, 0x08, 0x00, 0x00, 0x00,
  0x13, 0x00, 0x00, 0x00, 0x13, 0x00, 0x00, 0x00, 0x6d, 0x69, 0x6e, 0x5f,
  0x72, 0x75, 0x6e, 0x74, 0x69, 0x6d, 0x65, 0x5f, 0x76, 0x65, 0x72, 0x73,
  0x69, 0x6f, 0x6e, 0x00, 0xb6, 0xce, 0xff, 0xff, 0x04, 0x00, 0x00, 0x00,
  0x10, 0x00, 0x00, 0x00, 0x31, 0x2e, 0x35, 0x2e, 0x30, 0x00, 0x00, 0x00,
  0x00, 0x00, 0x00, 0x00, 0x00, 0x00, 0x00, 0x00, 0x0f, 0x00, 0x00, 0x00,
  0x4d, 0x4c, 0x49, 0x52, 0x20, 0x43, 0x6f, 0x6e, 0x76, 0x65, 0x72, 0x74,
  0x65, 0x64, 0x2e, 0x00, 0x00, 0x00, 0x0e, 0x00, 0x18, 0x00, 0x04, 0x00,
  0x08, 0x00, 0x0c, 0x00, 0x10, 0x00, 0x14, 0x00, 0x0e, 0x00, 0x00, 0x00,
  0x14, 0x00, 0x00, 0x00, 0x5c, 0x00, 0x00, 0x00, 0x60, 0x00, 0x00, 0x00,
  0x64, 0x00, 0x00, 0x00, 0x84, 0x00, 0x00, 0x00, 0x12, 0x00, 0x00, 0x00,
  0x9c, 0x31, 0x00, 0x00, 0x2c, 0x31, 0x00, 0x00, 0x88, 0x30, 0x00, 0x00,
  0xe0, 0x2f, 0x00, 0x00, 0x38, 0x2f, 0x00, 0x00, 0xd4, 0x2e, 0x00, 0x00,
  0x6c, 0x2e, 0x00, 0x00, 0x18, 0x12, 0x00, 0x00, 0xbc, 0x10, 0x00, 0x00,
  0xe0, 0x0e, 0x00, 0x00, 0x0c, 0x06, 0x00, 0x00, 0x28, 0x05, 0x00, 0x00,
  0xe8, 0x03, 0x00, 0x00, 0x3c, 0x03, 0x00, 0x00, 0x98, 0x02, 0x00, 0x00,
  0xd4, 0x01, 0x00, 0x00, 0x10, 0x01, 0x00, 0x00, 0x84, 0x00, 0x00, 0x00,
  0x01, 0x00, 0x00, 0x00, 0x00, 0x00, 0x00, 0x00, 0x01, 0x00, 0x00, 0x00,
  0x11, 0x00, 0x00, 0x00, 0x08, 0x00, 0x00, 0x00, 0x74, 0x05, 0x00, 0x00,
  0x94, 0x04, 0x00, 0x00, 0x78, 0x03, 0x00, 0x00, 0xbc, 0x02, 0x00, 0x00,
  0x30, 0x02, 0x00, 0x00, 0x50, 0x01, 0x00, 0x00, 0xa8, 0x00, 0x00, 0x00,
  0x10, 0x00, 0x00, 0x00, 0x04, 0x00, 0x00, 0x00, 0x6d, 0x61, 0x69, 0x6e,
  0x00, 0x00, 0x00, 0x00, 0x7a, 0xff, 0xff, 0xff, 0x00, 0x00, 0x00, 0x09,
  0x04, 0x00, 0x00, 0x00, 0x1c, 0x00, 0x00, 0x00, 0x10, 0x00, 0x00, 0x00,
  0x04, 0x00, 0x00, 0x00, 0xb2, 0xcf, 0xff, 0xff, 0x00, 0x00, 0x80, 0x3f,
  0x01, 0x00, 0x00, 0x00, 0x11, 0x00, 0x00, 0x00, 0x01, 0x00, 0x00, 0x00,
  0x10, 0x00, 0x00, 0x00, 0xa0, 0xfa, 0xff, 0xff, 0x19, 0x00, 0x00, 0x00,
  0x00, 0x00, 0x00, 0x19, 0x01, 0x00, 0x00, 0x00, 0x40, 0xcf, 0xff, 0xff,
  0x14, 0x00, 0x00, 0x00, 0x12, 0x00, 0x00, 0x00, 0x18, 0x00, 0x00, 0x00,
  0x30, 0x00, 0x00, 0x00, 0x20, 0x00, 0x00, 0x00, 0x02, 0x00, 0x00, 0x00,
  0x01, 0x00, 0x00, 0x00, 0x04, 0x00, 0x00, 0x00, 0x08, 0x00, 0x00, 0x00,
  0x49, 0x64, 0x65, 0x6e, 0x74, 0x69, 0x74, 0x79, 0x00, 0x00, 0x00, 0x00,
  0x02, 0x00, 0x00, 0x00, 0xff, 0xff, 0xff, 0xff, 0x04, 0x00, 0x00, 0x00,
  0x24, 0xd0, 0xff, 0xff, 0x00, 0x00, 0x0e, 0x00, 0x18, 0x00, 0x08, 0x00,
  0x0c, 0x00, 0x10, 0x00, 0x07, 0x00, 0x14, 0x00, 0x0e, 0x00, 0x00, 0x00,
  0x00, 0x00, 0x00, 0x08, 0x03, 0x00, 0x00, 0x00, 0x18, 0x00, 0x00, 0x00,
  0x0c, 0x00, 0x00, 0x00, 0x04, 0x00, 0x00, 0x00, 0x40, 0xcf, 0xff, 0xff,
  0x01, 0x00, 0x00, 0x00, 0x10, 0x00, 0x00, 0x00, 0x03, 0x00, 0x00, 0x00,
  0x0f, 0x00, 0x00, 0x00, 0x07, 0x00, 0x00, 0x00, 0x04, 0x00, 0x00, 0x00,
  0xc8, 0xcf, 0xff, 0xff, 0x14, 0x00, 0x00, 0x00, 0x11, 0x00, 0x00, 0x00,
  0x18, 0x00, 0x00, 0x00, 0x5c, 0x00, 0x00, 0x00, 0x4c, 0x00, 0x00, 0x00,
  0x02, 0x00, 0x00, 0x00, 0x01, 0x00, 0x00, 0x00, 0x04, 0x00, 0x00, 0x00,
  0x34, 0x00, 0x00, 0x00, 0x73, 0x65, 0x71, 0x75, 0x65, 0x6e, 0x74, 0x69,
  0x61, 0x6c, 0x2f, 0x64, 0x65, 0x6e, 0x73, 0x65, 0x5f, 0x31, 0x2f, 0x4d,
  0x61, 0x74, 0x4d, 0x75, 0x6c, 0x3b, 0x73, 0x65, 0x71, 0x75, 0x65, 0x6e,
  0x74, 0x69, 0x61, 0x6c, 0x2f, 0x64, 0x65, 0x6e, 0x73, 0x65, 0x5f, 0x31,
  0x2f, 0x42, 0x69, 0x61, 0x73, 0x41, 0x64, 0x64, 0x00, 0x00, 0x00, 0x00,
  0x02, 0x00, 0x00, 0x00, 0xff, 0xff, 0xff, 0xff, 0x04, 0x00, 0x00, 0x00,
  0xc8, 0xcf, 0xff, 0xff, 0xda, 0xfc, 0xff, 0xff, 0x00, 0x00, 0x00, 0x08,
  0x03, 0x00, 0x00, 0x00, 0x24, 0x00, 0x00, 0x00, 0x18, 0x00, 0x00, 0x00,
  0x0c, 0x00, 0x00, 0x00, 0x00, 0x00, 0x06, 0x00, 0x08, 0x00, 0x07, 0x00,
  0x06, 0x00, 0x00, 0x00, 0x00, 0x00, 0x00, 0x01, 0x01, 0x00, 0x00, 0x00,
  0x0f, 0x00, 0x00, 0x00, 0x03, 0x00, 0x00, 0x00, 0x0e, 0x00, 0x00, 0x00,
  0x06, 0x00, 0x00, 0x00, 0x03, 0x00, 0x00, 0x00, 0xe8, 0xfb, 0xff, 0xff,
  0x09, 0x00, 0x00, 0x00, 0x00, 0x00, 0x00, 0x09, 0x01, 0x00, 0x00, 0x00,
  0x88, 0xd0, 0xff, 0xff, 0x14, 0x00, 0x00, 0x00, 0x10, 0x00, 0x00, 0x00,
  0x18, 0x00, 0x00, 0x00, 0x6c, 0x00, 0x00, 0x00, 0x5c, 0x00, 0x00, 0x00,
  0x02, 0x00, 0x00, 0x00, 0x01, 0x00, 0x00, 0x00, 0x10, 0x00, 0x00, 0x00,
  0x46, 0x00, 0x00, 0x00, 0x73, 0x65, 0x71, 0x75, 0x65, 0x6e, 0x74, 0x69,
  0x61, 0x6c, 0x2f, 0x64, 0x65, 0x6e, 0x73, 0x65, 0x2f, 0x4d, 0x61, 0x74,
  0x4d, 0x75, 0x6c, 0x3b, 0x73, 0x65, 0x71, 0x75, 0x65, 0x6e, 0x74, 0x69,
  0x61, 0x6c, 0x2f, 0x64, 0x65, 0x6e, 0x73, 0x65, 0x2f, 0x52, 0x65, 0x6c,
  0x75, 0x3b, 0x73, 0x65, 0x71, 0x75, 0x65, 0x6e, 0x74, 0x69, 0x61, 0x6c,
  0x2f, 0x64, 0x65, 0x6e, 0x73, 0x65, 0x2f, 0x42, 0x69, 0x61, 0x73, 0x41,
  0x64, 0x64, 0x00, 0x00, 0x02, 0x00, 0x00, 0x00, 0xff, 0xff, 0xff, 0xff,
  0x10, 0x00, 0x00, 0x00, 0xa8, 0xd1, 0xff, 0xff, 0x00, 0x00, 0x0a, 0x00,
  0x10, 0x00, 0x04, 0x00, 0x08, 0x00, 0x0c, 0x00, 0x0a, 0x00, 0x00, 0x00,
  0x02, 0x00, 0x00, 0x00, 0x10, 0x00, 0x00, 0x00, 0x04, 0x00, 0x00, 0x00,
  0x01, 0x00, 0x00, 0x00, 0x0e, 0x00, 0x00, 0x00, 0x02, 0x00, 0x00, 0x00,
  0x0d, 0x00, 0x00, 0x00, 0x05, 0x00, 0x00, 0x00, 0xa8, 0xfc, 0xff, 0xff,
  0x16, 0x00, 0x00, 0x00, 0x00, 0x00, 0x00, 0x16, 0x01, 0x00, 0x00, 0x00,
  0x48, 0xd1, 0xff, 0xff, 0x14, 0x00, 0x00, 0x00, 0x0f, 0x00, 0x00, 0x00,
  0x18, 0x00, 0x00, 0x00, 0x40, 0x00, 0x00, 0x00, 0x30, 0x00, 0x00, 0x00,
  0x02, 0x00, 0x00, 0x00, 0x01, 0x00, 0x00, 0x00, 0x70, 0x00, 0x00, 0x00,
  0x1a, 0x00, 0x00, 0x00, 0x73, 0x65, 0x71, 0x75, 0x65, 0x6e, 0x74, 0x69,
  0x61, 0x6c, 0x2f, 0x66, 0x6c, 0x61, 0x74, 0x74, 0x65, 0x6e, 0x2f, 0x52,
  0x65, 0x73, 0x68, 0x61, 0x70, 0x65, 0x00, 0x00, 0x02, 0x00, 0x00, 0x00,
  0xff, 0xff, 0xff, 0xff, 0x70, 0x00, 0x00, 0x00, 0x2c, 0xd1, 0xff, 0xff,
  0x3e, 0xfe, 0xff, 0xff, 0x00, 0x00, 0x00, 0x05, 0x01, 0x00, 0x00, 0x00,
  0x38, 0x00, 0x00, 0x00, 0x2c, 0x00, 0x00, 0x00, 0x14, 0x00, 0x00, 0x00,
  0x00, 0x00, 0x0e, 0x00, 0x14, 0x00, 0x00, 0x00, 0x10, 0x00, 0x0c, 0x00,
  0x08, 0x00, 0x04, 0x00, 0x0e, 0x00, 0x00, 0x00, 0x03, 0x00, 0x00, 0x00,
  0x01, 0x00, 0x00, 0x00, 0x03, 0x00, 0x00, 0x00, 0x01, 0x00, 0x00, 0x00,
  0x01, 0x00, 0x00, 0x00, 0x0d, 0x00, 0x00, 0x00, 0x01, 0x00, 0x00, 0x00,
  0x0c, 0x00, 0x00, 0x00, 0xe8, 0xd1, 0xff, 0xff, 0x14, 0x00, 0x00, 0x00,
  0x0e, 0x00, 0x00, 0x00, 0x20, 0x00, 0x00, 0x00, 0x58, 0x00, 0x00, 0x00,
  0x40, 0x00, 0x00, 0x00, 0x04, 0x00, 0x00, 0x00, 0x01, 0x00, 0x00, 0x00,
  0x07, 0x00, 0x00, 0x00, 0x01, 0x00, 0x00, 0x00, 0x10, 0x00, 0x00, 0x00,
  0x22, 0x00, 0x00, 0x00, 0x73, 0x65, 0x71, 0x75, 0x65, 0x6e, 0x74, 0x69,
  0x61, 0x6c, 0x2f, 0x6d, 0x61, 0x78, 0x5f, 0x70, 0x6f, 0x6f, 0x6c, 0x69,
  0x6e, 0x67, 0x32, 0x64, 0x5f, 0x31, 0x2f, 0x4d, 0x61, 0x78, 0x50, 0x6f,
  0x6f, 0x6c, 0x00, 0x00, 0x04, 0x00, 0x00, 0x00, 0xff, 0xff, 0xff, 0xff,
  0x07, 0x00, 0x00, 0x00, 0x01, 0x00, 0x00, 0x00, 0x10, 0x00, 0x00, 0x00,
  0xe4, 0xd1, 0xff, 0xff, 0x1a, 0xfe, 0xff, 0xff, 0x00, 0x00, 0x00, 0x01,
  0x24, 0x00, 0x00, 0x00, 0x18, 0x00, 0x00, 0x00, 0x04, 0x00, 0x00, 0x00,
  0x0c, 0xfe, 0xff, 0xff, 0x01, 0x00, 0x00, 0x00, 0x01, 0x00, 0x00, 0x00,
  0x00, 0x00, 0x00, 0x01, 0x01, 0x00, 0x00, 0x00, 0x0c, 0x00, 0x00, 0x00,
  0x03, 0x00, 0x00, 0x00, 0x0b, 0x00, 0x00, 0x00, 0x09, 0x00, 0x00, 0x00,
  0x02, 0x00, 0x00, 0x00, 0x90, 0xd2, 0xff, 0xff, 0x14, 0x00, 0x00, 0x00,
  0x0d, 0x00, 0x00, 0x00, 0x20, 0x00, 0x00, 0x00, 0xb8, 0x00, 0x00, 0x00,
  0xa0, 0x00, 0x00, 0x00, 0x04, 0x00, 0x00, 0x00, 0x01, 0x00, 0x00, 0x00,
  0x15, 0x00, 0x00, 0x00, 0x01, 0x00, 0x00, 0x00, 0x10, 0x00, 0x00, 0x00,
  0x83, 0x00, 0x00, 0x00, 0x73, 0x65, 0x71, 0x75, 0x65, 0x6e, 0x74, 0x69,
  0x61, 0x6c, 0x2f, 0x63, 0x6f, 0x6e, 0x76, 0x32, 0x64, 0x5f, 0x31, 0x2f,
  0x52, 0x65, 0x6c, 0x75, 0x3b, 0x73, 0x65, 0x71, 0x75, 0x65, 0x6e, 0x74,
  0x69, 0x61, 0x6c, 0x2f, 0x63, 0x6f, 0x6e, 0x76, 0x32, 0x64, 0x5f, 0x31,
  0x2f, 0x42, 0x69, 0x61, 0x73, 0x41, 0x64, 0x64, 0x3b, 0x73, 0x65, 0x71,
  0x75, 0x65, 0x6e, 0x74, 0x69, 0x61, 0x6c, 0x2f, 0x63, 0x6f, 0x6e, 0x76,
  0x32, 0x64, 0x5f, 0x31, 0x2f, 0x43, 0x6f, 0x6e, 0x76, 0x32, 0x44, 0x3b,
  0x73, 0x65, 0x71, 0x75, 0x65, 0x6e, 0x74, 0x69, 0x61, 0x6c, 0x2f, 0x63,
  0x6f, 0x6e, 0x76, 0x32, 0x64, 0x5f, 0x31, 0x2f, 0x42, 0x69, 0x61, 0x73,
  0x41, 0x64, 0x64, 0x2f, 0x52, 0x65, 0x61, 0x64, 0x56, 0x61, 0x72, 0x69,
  0x61, 0x62, 0x6c, 0x65, 0x4f, 0x70, 0x2f, 0x72, 0x65, 0x73, 0x6f, 0x75,
  0x72, 0x63, 0x65, 0x00, 0x04, 0x00, 0x00, 0x00, 0xff, 0xff, 0xff, 0xff,
  0x15, 0x00, 0x00, 0x00, 0x01, 0x00, 0x00, 0x00, 0x10, 0x00, 0x00, 0x00,
  0xfc, 0xd3, 0xff, 0xff, 0x00, 0x00, 0x0e, 0x00, 0x1a, 0x00, 0x08, 0x00,
  0x0c, 0x00, 0x10, 0x00, 0x07, 0x00, 0x14, 0x00, 0x0e, 0x00, 0x00, 0x00,
  0x00, 0x00, 0x00, 0x05, 0x01, 0x00, 0x00, 0x00, 0x3c, 0x00, 0x00, 0x00,
  0x30, 0x00, 0x00, 0x00, 0x14, 0x00, 0x00, 0x00, 0x00, 0x00, 0x0e, 0x00,
  0x18, 0x00, 0x17, 0x00, 0x10, 0x00, 0x0c, 0x00, 0x08, 0x00, 0x04, 0x00,
  0x0e, 0x00, 0x00, 0x00, 0x03, 0x00, 0x00, 0x00, 0x03, 0x00, 0x00, 0x00,
  0x03, 0x00, 0x00, 0x00, 0x03, 0x00, 0x00, 0x00, 0x00, 0x00, 0x00, 0x01,
  0x01, 0x00, 0x00, 0x00, 0x0b, 0x00, 0x00, 0x00, 0x01, 0x00, 0x00, 0x00,
  0x0a, 0x00, 0x00, 0x00, 0x2c, 0xff, 0xff, 0xff, 0x11, 0x00, 0x00, 0x00,
  0x00, 0x00, 0x00, 0x11, 0x01, 0x00, 0x00, 0x00, 0xcc, 0xd3, 0xff, 0xff,
  0x14, 0x00, 0x00, 0x00, 0x0c, 0x00, 0x00, 0x00, 0x20, 0x00, 0x00, 0x00,
  0x58, 0x00, 0x00, 0x00, 0x40, 0x00, 0x00, 0x00, 0x04, 0x00, 0x00, 0x00,
  0x01, 0x00, 0x00, 0x00, 0x15, 0x00, 0x00, 0x00, 0x01, 0x00, 0x00, 0x00,
  0x08, 0x00, 0x00, 0x00, 0x20, 0x00, 0x00, 0x00, 0x73, 0x65, 0x71, 0x75,
  0x65, 0x6e, 0x74, 0x69, 0x61, 0x6c, 0x2f, 0x6d, 0x61, 0x78, 0x5f, 0x70,
  0x6f, 0x6f, 0x6c, 0x69, 0x6e, 0x67, 0x32, 0x64, 0x2f, 0x4d, 0x61, 0x78,
  0x50, 0x6f, 0x6f, 0x6c, 0x00, 0x00, 0x00, 0x00, 0x04, 0x00, 0x00, 0x00,
  0xff, 0xff, 0xff, 0xff, 0x15, 0x00, 0x00, 0x00, 0x01, 0x00, 0x00, 0x00,
  0x08, 0x00, 0x00, 0x00, 0xd8, 0xd4, 0xff, 0xff, 0x00, 0x00, 0x0e, 0x00,
  0x14, 0x00, 0x00, 0x00, 0x08, 0x00, 0x0c, 0x00, 0x07, 0x00, 0x10, 0x00,
  0x0e, 0x00, 0x00, 0x00, 0x00, 0x00, 0x00, 0x01, 0x30, 0x00, 0x00, 0x00,
  0x24, 0x00, 0x00, 0x00, 0x10, 0x00, 0x00, 0x00, 0x0c, 0x00, 0x10, 0x00,
  0x00, 0x00, 0x04, 0x00, 0x08, 0x00, 0x0f, 0x00, 0x0c, 0x00, 0x00, 0x00,
  0x01, 0x00, 0x00, 0x00, 0x01, 0x00, 0x00, 0x00, 0x00, 0x00, 0x00, 0x01,
  0x01, 0x00, 0x00, 0x00, 0x0a, 0x00, 0x00, 0x00, 0x03, 0x00, 0x00, 0x00,
  0x00, 0x00, 0x00, 0x00, 0x08, 0x00, 0x00, 0x00, 0x01, 0x00, 0x00, 0x00,
  0x0c, 0x00, 0x10, 0x00, 0x0b, 0x00, 0x00, 0x00, 0x0c, 0x00, 0x04, 0x00,
  0x0c, 0x00, 0x00, 0x00, 0x03, 0x00, 0x00, 0x00, 0x00, 0x00, 0x00, 0x03,
  0x01, 0x00, 0x00, 0x00, 0xac, 0xd4, 0xff, 0xff, 0x14, 0x00, 0x00, 0x00,
  0x0b, 0x00, 0x00, 0x00, 0x20, 0x00, 0x00, 0x00, 0xb0, 0x00, 0x00, 0x00,
  0x98, 0x00, 0x00, 0x00, 0x04, 0x00, 0x00, 0x00, 0x01, 0x00, 0x00, 0x00,
  0x40, 0x00, 0x00, 0x00, 0x03, 0x00, 0x00, 0x00, 0x08, 0x00, 0x00, 0x00,
  0x7b, 0x00, 0x00, 0x00, 0x73, 0x65, 0x71, 0x75, 0x65, 0x6e, 0x74, 0x69,
  0x61, 0x6c, 0x2f, 0x63, 0x6f, 0x6e, 0x76, 0x32, 0x64, 0x2f, 0x52, 0x65,
  0x6c, 0x75, 0x3b, 0x73, 0x65, 0x71, 0x75, 0x65, 0x6e, 0x74, 0x69, 0x61,
  0x6c, 0x2f, 0x63, 0x6f, 0x6e, 0x76, 0x32, 0x64, 0x2f, 0x42, 0x69, 0x61,
  0x73, 0x41, 0x64, 0x64, 0x3b, 0x73, 0x65, 0x71, 0x75, 0x65, 0x6e, 0x74,
  0x69, 0x61, 0x6c, 0x2f, 0x63, 0x6f, 0x6e, 0x76, 0x32, 0x64, 0x2f, 0x43,
  0x6f, 0x6e, 0x76, 0x32, 0x44, 0x3b, 0x73, 0x65, 0x71, 0x75, 0x65, 0x6e,
  0x74, 0x69, 0x61, 0x6c, 0x2f, 0x63, 0x6f, 0x6e, 0x76, 0x32, 0x64, 0x2f,
  0x42, 0x69, 0x61, 0x73, 0x41, 0x64, 0x64, 0x2f, 0x52, 0x65, 0x61, 0x64,
  0x56, 0x61, 0x72, 0x69, 0x61, 0x62, 0x6c, 0x65, 0x4f, 0x70, 0x2f, 0x72,
  0x65, 0x73, 0x6f, 0x75, 0x72, 0x63, 0x65, 0x00, 0x04, 0x00, 0x00, 0x00,
  0xff, 0xff, 0xff, 0xff, 0x40, 0x00, 0x00, 0x00, 0x03, 0x00, 0x00, 0x00,
  0x08, 0x00, 0x00, 0x00, 0x00, 0xd5, 0xff, 0xff, 0x0a, 0xd6, 0xff, 0xff,
  0x04, 0x00, 0x00, 0x00, 0x00, 0x08, 0x00, 0x00, 0xbd, 0x2a, 0xac, 0xbd,
  0xaf, 0xdd, 0xb8, 0xbd, 0x54, 0x9a, 0xfd, 0x3c, 0x53, 0x81, 0x98, 0xbd,
  0x50, 0xd2, 0x2e, 0xbe, 0x55, 0x73, 0x1b, 0xbe, 0x59, 0x8b, 0xad, 0xbd,
  0xf2, 0x0f, 0x25, 0xbe, 0x36, 0xc6, 0xe5, 0xbd, 0x5c, 0x52, 0x91, 0xbd,
  0x5f, 0x59, 0xc3, 0xbc, 0x7f, 0x53, 0x83, 0xbd, 0xc8, 0x9c, 0xf9, 0xbd,
  0x7a, 0x5b, 0x88, 0xbe, 0xdf, 0x24, 0x97, 0x3b, 0xd6, 0x57, 0x1d, 0xbe,
  0xb4, 0xe0, 0x0f, 0x3f, 0x53, 0x8a, 0x49, 0x3a, 0x15, 0x42, 0xdf, 0x3b,
  0x9f, 0x6c, 0x58, 0x3e, 0xee, 0x78, 0xe5, 0xbc, 0xf4, 0xc4, 0x9e, 0xbe,
  0x08, 0x57, 0x8d, 0xbd, 0x8d, 0x5e, 0x85, 0xbd, 0xe1, 0x54, 0x48, 0xbd,
  0xe0, 0x9c, 0x91, 0x3d, 0xd8, 0x1d, 0xa1, 0x3d, 0x99, 0x78, 0x6c, 0x3e,
  0x0b, 0x01, 0xec, 0xbd, 0x28, 0xd2, 0x85, 0xbe, 0xe2, 0x9c, 0x5f, 0x3c,
  0xd6, 0x43, 0x89, 0x3e, 0x18, 0x9b, 0xfe, 0xbd, 0xca, 0xe0, 0x63, 0x3e,
  0x92, 0x1e, 0x9e, 0x3e, 0xaf, 0xe1, 0xc5, 0xbc, 0x5d, 0x23, 0xd5, 0xbe,
  0x80, 0x83, 0xd8, 0xbb, 0x3d, 0x16, 0x69, 0xbe, 0x9d, 0x99, 0xca, 0xbc,
  0x8a, 0xeb, 0x3d, 0xbd, 0xe1, 0x29, 0xd8, 0x3d, 0x1a, 0xad, 0xe5, 0x3d,
  0xa7, 0xf4, 0xe3, 0xbc, 0xdc, 0xe8, 0x31, 0xbe, 0x20, 0x0b, 0x83, 0xbd,
  0xa9, 0x25, 0x62, 0xbc, 0x06, 0x84, 0x17, 0xbc, 0x03, 0xa8, 0x8c, 0x3d,
  0x8a, 0x6e, 0xb5, 0xbc, 0x12, 0x82, 0x24, 0xbe, 0xdc, 0x60, 0x0e, 0x3e,
  0x05, 0x37, 0x14, 0x3d, 0xf3, 0x6e, 0xab, 0xbd, 0x66, 0xfc, 0x03, 0x3c,
  0xcb, 0xd9, 0x74, 0x3c, 0xdd, 0x97, 0x08, 0x3d, 0x63, 0xc9, 0x0f, 0x3e,
  0x3a, 0xc7, 0x1e, 0x3f, 0x6f, 0x03, 0xed, 0xbb, 0x04, 0x00, 0xbe, 0xbd,
  0x82, 0x2a, 0xb6, 0xbd, 0xf1, 0x44, 0x25, 0x3e, 0xc2, 0xa3, 0x19, 0x3d,
  0xb6, 0x5c, 0x08, 0xbd, 0x25, 0xc0, 0x7f, 0x3e, 0x77, 0x4a, 0x02, 0x3e,
  0xe9, 0x58, 0x75, 0xbe, 0xe1, 0xf3, 0x1c, 0x3d, 0x54, 0x84, 0xbd, 0x3c,
  0x2e, 0x1c, 0x14, 0x3d, 0x93, 0x01, 0x21, 0xbe, 0x32, 0x80, 0xd6, 0x3c,
  0xc0, 0x98, 0x37, 0x3d, 0xbd, 0xce, 0x90, 0x3d, 0xf4, 0x17, 0x78, 0xbe,
  0xf0, 0xce, 0xde, 0xbd, 0x93, 0x26, 0x13, 0xbd, 0xec, 0x63, 0x93, 0xbd,
  0xa3, 0xbb, 0x87, 0x3d, 0x4a, 0xc1, 0x97, 0xbd, 0xfa, 0xf3, 0x50, 0x3d,
  0xd2, 0x5b, 0xf9, 0xbd, 0xfe, 0x4c, 0x23, 0xbe, 0xfc, 0x8a, 0x68, 0x3e,
  0x38, 0x43, 0x81, 0x3d, 0xaf, 0xa3, 0xae, 0xbc, 0x48, 0x69, 0xfb, 0xbc,
  0xb9, 0x78, 0xa8, 0xbc, 0x94, 0x16, 0x30, 0x3d, 0x7d, 0x9d, 0x88, 0x3e,
  0x84, 0xc1, 0x71, 0xbe, 0x62, 0x5f, 0x6a, 0xbd, 0x92, 0x1a, 0x7d, 0x3d,
  0x24, 0xd9, 0x5f, 0x3e, 0x11, 0xbe, 0xcf, 0x3d, 0x13, 0x35, 0xac, 0xbe,
  0x95, 0x29, 0x26, 0xbe, 0x98, 0x5e, 0x6b, 0x3c, 0x7b, 0x11, 0x59, 0xbe,
  0xd0, 0xab, 0x71, 0xbe, 0xed, 0x97, 0xf5, 0xbc, 0xa0, 0xa6, 0x8a, 0xbe,
  0xb8, 0x56, 0x06, 0xbe, 0xae, 0x30, 0x97, 0xbe, 0x38, 0xec, 0x9c, 0x3b,
  0x5c, 0x6c, 0xb3, 0xbb, 0xc4, 0x54, 0x39, 0xbe, 0x1c, 0x8c, 0x33, 0xbd,
  0x54, 0x00, 0xaf, 0xbd, 0xef, 0x27, 0xb5, 0xbe, 0x25, 0x4d, 0x31, 0xbe,
  0x85, 0x26, 0x99, 0xbe, 0xfe, 0xaf, 0xaf, 0xbd, 0xc2, 0x44, 0xd5, 0xbd,
  0xf1, 0xe5, 0xbe, 0xbd, 0x1d, 0x0e, 0x90, 0xbb, 0x1e, 0x17, 0xe0, 0x3c,
  0x7d, 0x0c, 0x8f, 0xbe, 0x75, 0xd6, 0x0a, 0xbe, 0x05, 0xfb, 0x1a, 0xbe,
  0x38, 0x4e, 0x95, 0xbe, 0xef, 0x1c, 0x93, 0x3b, 0x77, 0xeb, 0x08, 0x3d,
  0x30, 0xce, 0x14, 0x3e, 0xfc, 0xe4, 0x00, 0xbe, 0x94, 0x71, 0xec, 0xbd,
  0xad, 0xd4, 0x2c, 0xbd, 0xe5, 0xfa, 0xc5, 0xbd, 0x5c, 0xfa, 0x79, 0xbe,
  0x19, 0xc6, 0x8c, 0xbe, 0x08, 0x50, 0xba, 0xbe, 0xf7, 0x72, 0x1f, 0xbe,
  0x78, 0x38, 0xfe, 0xbd, 0xc6, 0x12, 0x63, 0xbe, 0xa0, 0xca, 0xfb, 0x3b,
  0x21, 0x49, 0x5f, 0xbe, 0x9c, 0x31, 0x9a, 0xbe, 0x9f, 0x92, 0x54, 0xbe,
  0x0d, 0x07, 0xe0, 0xbe, 0x71, 0x22, 0xd9, 0x3d, 0xbc, 0x4d, 0x3b, 0xbe,
  0x9f, 0xd5, 0xef, 0xbd, 0x05, 0x2f, 0x29, 0x3e, 0x1f, 0xba, 0x3a, 0xbe,
  0xbd, 0x70, 0x97, 0xbe, 0xd4, 0x9a, 0x22, 0x3d, 0x3a, 0x86, 0x48, 0xbe,
  0x03, 0x72, 0x44, 0x3d, 0x51, 0x7a, 0x72, 0xbd, 0x4c, 0xf9, 0x5c, 0xbe,
  0xdb, 0x19, 0x19, 0xbd, 0x57, 0xdc, 0x83, 0xbd, 0xed, 0xb2, 0x09, 0xbe,
  0x91, 0xdf, 0xa5, 0xbe, 0x59, 0x0d, 0xdf, 0xbe, 0x86, 0x11, 0xd9, 0x3e,
  0x97, 0x68, 0xe3, 0xbd, 0x5e, 0xba, 0x83, 0xbb, 0x58, 0x5c, 0xd5, 0x3d,
  0x88, 0x4c, 0xc0, 0x3c, 0xe9, 0x80, 0x28, 0x3f, 0xc6, 0x9a, 0x8e, 0x3c,
  0x0e, 0x87, 0xbe, 0xbd, 0x16, 0xf7, 0x55, 0xbe, 0x1f, 0xc3, 0x80, 0xbe,
  0x1a, 0x9b, 0x14, 0x3d, 0x00, 0x10, 0x97, 0xbd, 0x14, 0xd9, 0x52, 0x3d,
  0xac, 0x44, 0x20, 0xbc, 0x95, 0xd3, 0x8a, 0x3d, 0xfd, 0x55, 0xd4, 0xbd,
  0x87, 0x9a, 0x7a, 0xbc, 0xc5, 0x3d, 0x9e, 0xbe, 0x39, 0xc6, 0xf6, 0x3b,
  0xd8, 0xa8, 0x6b, 0xbe, 0x22, 0x6a, 0xf6, 0xbc, 0x2d, 0xc8, 0x2e, 0xbc,
  0x5f, 0x57, 0x18, 0xbf, 0xd3, 0x4d, 0x3e, 0x3b, 0x49, 0x71, 0x0a, 0xbd,
  0xd7, 0xa9, 0x93, 0xbe, 0xf1, 0x4b, 0x1d, 0x3d, 0x9c, 0x21, 0xf5, 0xbd,
  0xf9, 0x51, 0xcc, 0xbd, 0xbb, 0x83, 0x54, 0x3d, 0xcd, 0xe0, 0x34, 0xbf,
  0x74, 0xa6, 0xb0, 0x3e, 0x63, 0x6d, 0xba, 0xbd, 0xde, 0x55, 0x58, 0xbc,
  0x55, 0xd9, 0xc0, 0xbd, 0x2b, 0xa7, 0x93, 0x3e, 0x88, 0x2b, 0xb3, 0xbd,
  0xf7, 0x8a, 0x47, 0x3d, 0x4e, 0x95, 0x97, 0xbe, 0x26, 0xe1, 0xe8, 0x3e,
  0xf6, 0xe4, 0x53, 0x3d, 0x44, 0xbd, 0xf0, 0xbd, 0x45, 0x08, 0x2d, 0xbe,
  0xe5, 0xb2, 0xd2, 0xbd, 0xf8, 0xf3, 0x40, 0xbe, 0x31, 0x93, 0x3c, 0x3e,
  0x80, 0xf5, 0xd2, 0xbc, 0x59, 0xfc, 0x9b, 0x3d, 0x3f, 0xbe, 0xce, 0xbe,
  0xdb, 0x12, 0x91, 0xbd, 0x38, 0x4e, 0xcc, 0xbe, 0x1c, 0x32, 0x17, 0x3e,
  0xf7, 0x38, 0xb6, 0xbc, 0x06, 0x96, 0xd9, 0x3d, 0x3f, 0xc9, 0xab, 0x3e,
  0xc3, 0x9f, 0x81, 0xbd, 0x0b, 0xc9, 0x4e, 0xbe, 0xd6, 0xb1, 0x37, 0xbc,
  0xfd, 0x4c, 0x9e, 0xbd, 0x77, 0xa8, 0xb9, 0xbd, 0x99, 0x02, 0x25, 0xbd,
  0x50, 0xcd, 0xe9, 0xbd, 0xcc, 0x1f, 0x20, 0xbd, 0x90, 0x35, 0x3f, 0x3d,
  0x1b, 0x6c, 0x8f, 0x3d, 0x69, 0x48, 0xd9, 0xbd, 0xae, 0x39, 0x7f, 0xbc,
  0x25, 0x7a, 0x03, 0xbe, 0xe0, 0x1e, 0x6f, 0xbe, 0x57, 0xe3, 0xc7, 0xbd,
  0xe0, 0x92, 0x92, 0xbe, 0x5f, 0x7a, 0xe2, 0x3c, 0xb0, 0x70, 0xd9, 0x3e,
  0x9a, 0x83, 0xaa, 0x3c, 0x02, 0x61, 0x21, 0xbe, 0xdf, 0x9d, 0x11, 0xbb,
  0x60, 0xab, 0x70, 0xbe, 0x38, 0x41, 0xa2, 0x3d, 0x68, 0xea, 0x32, 0x3d,
  0x02, 0x30, 0x26, 0x3d, 0xd1, 0xc4, 0x62, 0xbe, 0xe3, 0x7c, 0xa5, 0x3c,
  0x5b, 0xe7, 0xf3, 0xbe, 0xbd, 0x50, 0xe7, 0x3e, 0x1b, 0xce, 0xf3, 0xbd,
  0x5c, 0x3f, 0x4e, 0x3e, 0xfb, 0xf0, 0xae, 0x3c, 0xe0, 0x7f, 0xf6, 0xbd,
  0x98, 0xb3, 0x20, 0xbe, 0xdc, 0x56, 0xd2, 0x3b, 0x4c, 0x5d, 0xb5, 0xbd,
  0xe3, 0x2e, 0xa3, 0xbc, 0xd0, 0xba, 0x34, 0xbd, 0x79, 0xde, 0x7c, 0xbc,
  0x19, 0x62, 0x8a, 0xbc, 0x1c, 0x6a, 0x06, 0xbe, 0xcf, 0x84, 0xcf, 0x3c,
  0xf7, 0x85, 0x3c, 0x3c, 0xa0, 0x5b, 0x6e, 0x3b, 0x8d, 0x2b, 0xc1, 0xbc,
  0x49, 0x84, 0xa2, 0xbe, 0x02, 0xd0, 0xe5, 0x3c, 0xf1, 0x95, 0xff, 0x3c,
  0x89, 0x1d, 0xc5, 0x3d, 0x31, 0x50, 0x60, 0x3f, 0xeb, 0xc9, 0x53, 0xbd,
  0x1c, 0xdc, 0xf4, 0xbe, 0x88, 0xa0, 0x59, 0x3c, 0x7a, 0xb8, 0x3a, 0xbe,
  0x9e, 0x87, 0x74, 0x3d, 0xeb, 0x18, 0x0d, 0x3e, 0x75, 0xa3, 0x1e, 0x3d,
  0xa4, 0x32, 0x22, 0xbe, 0x35, 0x7a, 0x63, 0xbd, 0xdd, 0xc6, 0xb2, 0xbe,
  0x44, 0x73, 0xb8, 0x3d, 0xd3, 0xe4, 0xbd, 0xbd, 0x6f, 0xaa, 0x98, 0x3d,
  0xb6, 0x8d, 0x33, 0x3e, 0xa5, 0x7d, 0x2b, 0xbd, 0x59, 0x8c, 0x45, 0x3e,
  0xb5, 0xf5, 0x09, 0xbd, 0x9d, 0xec, 0x14, 0xbe, 0x28, 0xb8, 0xbf, 0xbc,
  0x18, 0xf1, 0xb5, 0xbd, 0x6b, 0x73, 0xf4, 0x3d, 0xc3, 0xf5, 0x15, 0x3e,
  0x7c, 0x2a, 0xd4, 0xbd, 0x5e, 0xb7, 0xb3, 0x3d, 0xac, 0x15, 0xe4, 0xbd,
  0x20, 0x65, 0x10, 0xbe, 0x7f, 0x15, 0x9e, 0xbd, 0x63, 0xe4, 0xbe, 0xbd,
  0x45, 0x92, 0xaa, 0xbe, 0x93, 0xc7, 0x05, 0xbe, 0x8b, 0x9d, 0x0b, 0xbf,
  0xfe, 0xe1, 0x13, 0xbe, 0x00, 0x5e, 0xb3, 0xbe, 0xf1, 0x5c, 0x1d, 0xbd,
  0xd6, 0x0d, 0x48, 0xbe, 0x85, 0xd3, 0x23, 0x3d, 0x67, 0x11, 0xf5, 0x3d,
  0xcc, 0x92, 0x6d, 0xbd, 0x48, 0x33, 0x1c, 0xbf, 0x6b, 0x8e, 0x5c, 0xbe,
  0x1d, 0x28, 0x81, 0xbe, 0xc4, 0x31, 0x53, 0xbc, 0xe6, 0x0c, 0x57, 0xbe,
  0x1a, 0x56, 0x08, 0xbd, 0xa2, 0x1d, 0x87, 0x3e, 0x8e, 0x2e, 0x84, 0x3e,
  0x83, 0xee, 0x07, 0x3c, 0x75, 0x99, 0x35, 0xbd, 0xed, 0x01, 0xaa, 0xbe,
  0x99, 0x34, 0x62, 0x3e, 0x5a, 0x6d, 0xa3, 0xbe, 0xb2, 0x68, 0x38, 0xbd,
  0x37, 0x8f, 0x37, 0x3e, 0xd5, 0xd4, 0x34, 0xbe, 0x81, 0x7a, 0xe3, 0x3d,
  0xa9, 0xe6, 0xee, 0x3b, 0xa5, 0x68, 0x3c, 0x3e, 0x26, 0x79, 0x5d, 0xbd,
  0x2e, 0x74, 0xa3, 0xbe, 0x73, 0x30, 0x87, 0xbd, 0x7b, 0x7f, 0xd5, 0xbe,
  0xcb, 0x18, 0x57, 0xbe, 0x13, 0x3a, 0x23, 0xbe, 0xf2, 0x5a, 0x5f, 0xbe,
  0xd9, 0x85, 0x93, 0xbd, 0xc3, 0xf9, 0xd4, 0x3c, 0x5e, 0xff, 0x29, 0xbe,
  0xd9, 0x4e, 0xbb, 0x3c, 0xdb, 0x0b, 0x80, 0x3e, 0xd1, 0x02, 0x10, 0xbe,
  0x85, 0xf5, 0x08, 0xbd, 0xc5, 0x6f, 0x68, 0xbe, 0x8a, 0xfe, 0xc4, 0xbb,
  0xa5, 0xf9, 0x20, 0x3d, 0xce, 0xb5, 0x84, 0x3c, 0x2d, 0xc0, 0x8d, 0xbd,
  0x5f, 0xf5, 0xe8, 0xbe, 0x60, 0xba, 0xef, 0xbe, 0xf8, 0xbf, 0x17, 0x3c,
  0xd7, 0xe2, 0x5e, 0xbe, 0x9d, 0xc4, 0xc3, 0xbc, 0xb7, 0xe0, 0xd0, 0xbd,
  0x10, 0xce, 0x0f, 0x3d, 0x53, 0x8e, 0x0e, 0xbe, 0xfd, 0x16, 0x97, 0x3d,
  0xa2, 0x44, 0xfe, 0xbe, 0x1c, 0xaa, 0x81, 0x3e, 0xfb, 0x76, 0x36, 0x3f,
  0x8f, 0x02, 0x85, 0xbc, 0x05, 0x40, 0xee, 0xbd, 0x2a, 0xf0, 0x8b, 0x3d,
  0xfe, 0xaf, 0x35, 0xbe, 0xb1, 0x12, 0x04, 0x3c, 0x8e, 0xd1, 0xf8, 0xbe,
  0x06, 0x4e, 0xc8, 0xbc, 0x62, 0xd8, 0x5c, 0xbe, 0x32, 0x90, 0xae, 0x3c,
  0xa5, 0xc3, 0x36, 0xbe, 0x08, 0xb8, 0x5e, 0xbd, 0x24, 0x89, 0x3c, 0xbe,
  0x43, 0xb7, 0x9e, 0x3d, 0xa7, 0xc7, 0x4a, 0xbe, 0x7e, 0x70, 0x0f, 0x3e,
  0xad, 0xd7, 0xa8, 0xbe, 0x90, 0x38, 0xab, 0xbc, 0x38, 0x06, 0x50, 0xbe,
  0x3b, 0xf2, 0x62, 0xbc, 0x9c, 0x4d, 0x9a, 0xbd, 0xd0, 0x1c, 0xb3, 0x3d,
  0x54, 0x6f, 0x94, 0x3e, 0xe2, 0xdf, 0x33, 0xbd, 0xee, 0xe6, 0xa6, 0xbe,
  0xf0, 0x6b, 0x3a, 0xbd, 0x09, 0x65, 0x09, 0xbe, 0xa4, 0x27, 0x8b, 0x3d,
  0x29, 0x92, 0xa6, 0x3e, 0x77, 0x50, 0x5e, 0xbd, 0x0e, 0x24, 0xf8, 0x3e,
  0x20, 0xb9, 0xf7, 0xbc, 0x00, 0x6c, 0xd7, 0xbd, 0x43, 0xc2, 0xbb, 0xbd,
  0x84, 0xde, 0xf6, 0x3e, 0x4a, 0xb5, 0x3b, 0xbd, 0xd9, 0x0e, 0x88, 0xbe,
  0x78, 0xbe, 0xd9, 0xbe, 0x91, 0xc4, 0x00, 0xbf, 0xbf, 0xff, 0x72, 0xbe,
  0xed, 0x6a, 0x4a, 0xbd, 0x8a, 0x3d, 0xd0, 0xbc, 0xd9, 0x94, 0x1e, 0xbd,
  0xd0, 0x35, 0xef, 0xbd, 0x34, 0x9c, 0x95, 0xbe, 0x8a, 0x78, 0x72, 0xbc,
  0x67, 0x52, 0xa3, 0xbe, 0x62, 0x16, 0x3d, 0xbe, 0xaf, 0x38, 0x6a, 0xbd,
  0xe0, 0x79, 0xc6, 0x3b, 0xa0, 0xa6, 0xbf, 0xbc, 0x8b, 0x1c, 0xc2, 0xbd,
  0x18, 0x2f, 0x4a, 0xbe, 0x62, 0x46, 0x91, 0x3e, 0x4f, 0x81, 0xe9, 0xbe,
  0xbd, 0xfd, 0xc9, 0x3d, 0xb1, 0x6e, 0xb1, 0x3e, 0x42, 0x9f, 0xe2, 0x3c,
  0x6c, 0xf9, 0xe2, 0xbd, 0x06, 0xa5, 0x38, 0xbd, 0x6f, 0x87, 0x3f, 0xbe,
  0xb2, 0x07, 0x88, 0x3d, 0xfd, 0x8a, 0x9b, 0x3e, 0xa8, 0xb8, 0x6d, 0x3e,
  0x65, 0xcc, 0xee, 0x3e, 0xb1, 0x02, 0x1c, 0xbc, 0x15, 0x0d, 0x6e, 0xbe,
  0x8c, 0x8e, 0x1a, 0x3d, 0x50, 0xf2, 0x1c, 0xbe, 0x71, 0xb5, 0xdf, 0xbd,
  0x01, 0xf8, 0xc9, 0x3c, 0xb0, 0x12, 0x07, 0xbf, 0xe7, 0xdd, 0x33, 0xbe,
  0x1c, 0x2f, 0xd1, 0x3e, 0x65, 0x5a, 0x05, 0xbe, 0xd7, 0xae, 0x9f, 0xbd,
  0x65, 0xc0, 0xdf, 0x3e, 0x48, 0x4c, 0x35, 0x3d, 0x4d, 0x6a, 0x05, 0x3e,
  0x55, 0xff, 0xa9, 0xbe, 0xf8, 0x88, 0x49, 0xbe, 0xf7, 0x0a, 0x83, 0xbe,
  0xaa, 0x6f, 0x1f, 0xbd, 0x75, 0xda, 0xbc, 0x3b, 0xdb, 0x9f, 0xfa, 0xbc,
  0x4f, 0x65, 0x54, 0x3e, 0x94, 0x11, 0x6c, 0x3e, 0xdc, 0xa0, 0x20, 0xbd,
  0xc3, 0xde, 0xae, 0xbd, 0x02, 0x02, 0xc5, 0xbe, 0x74, 0x1e, 0x4e, 0x3c,
  0x85, 0x2c, 0x5c, 0xbe, 0x9a, 0x21, 0x91, 0xbd, 0x9e, 0xb0, 0x65, 0x3e,
  0xb6, 0x27, 0x88, 0xbe, 0x0f, 0x17, 0x76, 0xbd, 0x8e, 0x3b, 0x8f, 0xbd,
  0xe0, 0x22, 0x73, 0xbe, 0x83, 0x53, 0xab, 0xbd, 0x2f, 0xd0, 0xc2, 0xbe,
  0x22, 0x09, 0x2d, 0x3e, 0xa9, 0x12, 0xb4, 0x3e, 0x8b, 0x8a, 0x1a, 0xbd,
  0x73, 0xdf, 0x1c, 0xbd, 0x70, 0x14, 0x1d, 0x3d, 0x52, 0x30, 0x5b, 0xbe,
  0x08, 0xf7, 0xaa, 0x3e, 0x52, 0x1c, 0x98, 0xbe, 0x71, 0x56, 0x54, 0xbe,
  0x9c, 0x68, 0x30, 0x3e, 0x18, 0x39, 0x46, 0xbe, 0x14, 0x61, 0x7e, 0xbe,
  0x3f, 0x82, 0xe2, 0xbd, 0x3b, 0xb3, 0x93, 0xbd, 0xc0, 0x2d, 0x76, 0xbe,
  0xf6, 0xc9, 0xaa, 0xbe, 0x1d, 0xb5, 0x3c, 0xbe, 0x8f, 0xb0, 0x80, 0x3e,
  0x76, 0xd8, 0x10, 0xbe, 0x3c, 0x16, 0x30, 0xbe, 0x48, 0x90, 0x71, 0xbd,
  0x4a, 0xd3, 0x36, 0xbd, 0xfd, 0x36, 0x49, 0xbe, 0x6b, 0x33, 0x8a, 0xbe,
  0x3c, 0x3c, 0x62, 0xbe, 0x53, 0xcd, 0xd7, 0x3d, 0x55, 0x89, 0x25, 0xbe,
  0x46, 0xb3, 0xa5, 0xbd, 0xcf, 0x38, 0x04, 0xbd, 0x58, 0x68, 0xd4, 0x3e,
  0x81, 0x6d, 0x4a, 0xbe, 0x28, 0x10, 0x7e, 0xbd, 0x6b, 0x20, 0x1f, 0x3e,
  0x4e, 0xfb, 0x3e, 0xbf, 0x0c, 0x8c, 0x59, 0xbe, 0xd8, 0x2d, 0x82, 0x3c,
  0x85, 0x7d, 0xea, 0xbd, 0x4d, 0x24, 0x72, 0x3d, 0x5c, 0x5b, 0xf3, 0x3d,
  0x60, 0xc4, 0x77, 0x3e, 0xa6, 0xc1, 0x7f, 0xbd, 0xcf, 0x73, 0x25, 0xbf,
  0x66, 0x76, 0x02, 0xbf, 0x33, 0x82, 0x81, 0x3e, 0xa9, 0xf2, 0x1e, 0xbe,
  0xe9, 0x80, 0x14, 0xbe, 0x66, 0x47, 0x02, 0xbe, 0x49, 0x99, 0xa8, 0xbc,
  0xee, 0x4a, 0x0c, 0x3e, 0x0f, 0xdd, 0x24, 0xbf, 0x11, 0x2e, 0xeb, 0xbe,
  0xf0, 0xd2, 0x42, 0xbb, 0xd7, 0x25, 0x40, 0x3d, 0x29, 0x65, 0x93, 0xbc,
  0x17, 0x5d, 0x76, 0x3e, 0xea, 0x6e, 0x82, 0x3d, 0x2a, 0x04, 0x8c, 0xbc,
  0x8f, 0x67, 0x1d, 0xbf, 0xdb, 0x4a, 0xe5, 0xbe, 0xb9, 0x17, 0x89, 0xbd,
  0xaf, 0xdd, 0x17, 0x3d, 0x45, 0xa4, 0x5c, 0xbd, 0x64, 0x6d, 0x84, 0x3d,
  0x0a, 0x83, 0x60, 0xbe, 0xe2, 0xdd, 0xff, 0xff, 0x10, 0x00, 0x00, 0x00,
  0x0a, 0x00, 0x00, 0x00, 0x1c, 0x00, 0x00, 0x00, 0x38, 0x00, 0x00, 0x00,
  0x04, 0x00, 0x00, 0x00, 0x10, 0x00, 0x00, 0x00, 0x04, 0x00, 0x00, 0x00,
  0x01, 0x00, 0x00, 0x00, 0x08, 0x00, 0x00, 0x00, 0x1a, 0x00, 0x00, 0x00,
  0x73, 0x65, 0x71, 0x75, 0x65, 0x6e, 0x74, 0x69, 0x61, 0x6c, 0x2f, 0x63,
  0x6f, 0x6e, 0x76, 0x32, 0x64, 0x5f, 0x31, 0x2f, 0x43, 0x6f, 0x6e, 0x76,
  0x32, 0x44, 0x00, 0x00, 0x58, 0xdd, 0xff, 0xff, 0x62, 0xde, 0xff, 0xff,
  0x04, 0x00, 0x00, 0x00, 0x80, 0x01, 0x00, 0x00, 0xbc, 0x39, 0xdc, 0x3d,
  0xb5, 0x99, 0x2b, 0xbe, 0x14, 0xd3, 0xd8, 0xbd, 0xa2, 0x86, 0xf4, 0x3d,
  0x35, 0x78, 0x3b, 0xbe, 0x7d, 0xec, 0x29, 0xbd, 0x4c, 0x7c, 0x81, 0xbd,
  0xb6, 0x7d, 0x81, 0xbd, 0x92, 0x5b, 0x2b, 0x3d, 0xbd, 0xdf, 0x96, 0xbe,
  0xc7, 0x84, 0xe3, 0x3d, 0xcd, 0xe6, 0x27, 0x3e, 0xb1, 0xcd, 0x12, 0xbf,
  0x3f, 0xbc, 0x05, 0x3e, 0xc0, 0x8f, 0x05, 0x3e, 0x4e, 0x8a, 0x8d, 0xbd,
  0x7a, 0xb3, 0x80, 0x3e, 0x05, 0x65, 0x1f, 0x3e, 0x34, 0xeb, 0xa9, 0x3e,
  0xd6, 0x34, 0x29, 0xbd, 0x61, 0x0d, 0x71, 0x3c, 0x41, 0x28, 0x9f, 0x3e,
  0x0e, 0xe7, 0xb4, 0xbe, 0xcc, 0xb1, 0xb1, 0xbe, 0x65, 0xb6, 0xb6, 0x3e,
  0x81, 0xab, 0xfd, 0x3e, 0x58, 0xb1, 0xb9, 0x3d, 0xda, 0x86, 0xeb, 0xbd,
  0xb5, 0x39, 0xcf, 0x3c, 0x7a, 0xd0, 0x8a, 0x3d, 0x25, 0xb4, 0x6f, 0xbe,
  0x0e, 0xed, 0xed, 0xbe, 0x72, 0xb5, 0xd6, 0xbd, 0x3a, 0xf8, 0x89, 0xbd,
  0xd4, 0xca, 0xbf, 0xbd, 0x14, 0x51, 0x84, 0xbd, 0x12, 0xbc, 0x2f, 0xbd,
  0x77, 0x55, 0xd7, 0xbd, 0x98, 0x0e, 0x0f, 0xbe, 0x51, 0x79, 0xa4, 0xbd,
  0xbc, 0x17, 0xc7, 0xbd, 0xb0, 0xeb, 0xc7, 0xbd, 0xa5, 0xa0, 0x03, 0x3e,
  0x3d, 0x2d, 0xa1, 0x3d, 0x2e, 0x0b, 0x3e, 0x3d, 0x50, 0x80, 0x6b, 0x3e,
  0x4e, 0xbf, 0x83, 0x3e, 0x45, 0x18, 0x53, 0x3e, 0xe4, 0x3e, 0x1b, 0xbd,
  0xcd, 0x23, 0x21, 0xbd, 0xcf, 0x11, 0x9e, 0xbd, 0x16, 0xc9, 0x9b, 0xbe,
  0x49, 0x7e, 0xd8, 0xbe, 0xf5, 0x5e, 0x48, 0x3e, 0x1b, 0xd9, 0x3e, 0xbd,
  0xf7, 0x84, 0x00, 0x3e, 0x6a, 0x4b, 0x34, 0xbe, 0xfa, 0xba, 0x0a, 0x3f,
  0x44, 0xe6, 0x70, 0x3e, 0xed, 0x48, 0xd2, 0xbd, 0x2b, 0x11, 0x56, 0xbd,
  0xca, 0xd1, 0xb8, 0x3d, 0xb4, 0x71, 0xed, 0x3d, 0xf7, 0xc1, 0x7e, 0x3e,
  0xa7, 0xf2, 0xd8, 0xbd, 0x8c, 0x16, 0x26, 0x3e, 0x51, 0x83, 0xb6, 0xbc,
  0x3b, 0xc2, 0xe4, 0xbd, 0xad, 0xc1, 0x41, 0x3d, 0xad, 0xd3, 0xca, 0x3e,
  0xc6, 0x29, 0xa8, 0x3b, 0x80, 0x4a, 0x64, 0xbe, 0x3d, 0x2d, 0xb5, 0x3d,
  0x29, 0xe4, 0x43, 0xbe, 0xb2, 0xec, 0x0a, 0xbe, 0xf3, 0x97, 0x33, 0x3c,
  0xfa, 0xd2, 0x37, 0xbe, 0x87, 0x56, 0xe7, 0x3d, 0xc0, 0x91, 0x1a, 0xbe,
  0x26, 0xba, 0x6b, 0xbc, 0x50, 0xe7, 0x36, 0x3d, 0x31, 0xd4, 0xdb, 0xbd,
  0xd1, 0x5e, 0xc5, 0x3d, 0x1a, 0x32, 0x60, 0x3b, 0xd6, 0x79, 0x50, 0x3e,
  0xb2, 0xd9, 0xbe, 0x3c, 0x6c, 0x9b, 0x99, 0xbd, 0x03, 0x0b, 0xba, 0x3e,
  0xf8, 0xd3, 0x9c, 0x3c, 0x72, 0x10, 0x41, 0x3e, 0x5c, 0x24, 0x11, 0x3d,
  0x26, 0x98, 0xd5, 0xbd, 0x58, 0x07, 0x3f, 0xbe, 0x6a, 0x26, 0x16, 0xbe,
  0xb8, 0x70, 0x03, 0x3e, 0x6b, 0x79, 0xcb, 0xbd, 0xba, 0xdf, 0xff, 0xff,
  0x10, 0x00, 0x00, 0x00, 0x09, 0x00, 0x00, 0x00, 0x1c, 0x00, 0x00, 0x00,
  0x38, 0x00, 0x00, 0x00, 0x04, 0x00, 0x00, 0x00, 0x08, 0x00, 0x00, 0x00,
  0x04, 0x00, 0x00, 0x00, 0x03, 0x00, 0x00, 0x00, 0x01, 0x00, 0x00, 0x00,
  0x18, 0x00, 0x00, 0x00, 0x73, 0x65, 0x71, 0x75, 0x65, 0x6e, 0x74, 0x69,
  0x61, 0x6c, 0x2f, 0x63, 0x6f, 0x6e, 0x76, 0x32, 0x64, 0x2f, 0x43, 0x6f,
  0x6e, 0x76, 0x32, 0x44, 0x00, 0x00, 0x00, 0x00, 0x30, 0xdf, 0xff, 0xff,
  0x3a, 0xe0, 0xff, 0xff, 0x04, 0x00, 0x00, 0x00, 0x00, 0x01, 0x00, 0x00,
  0x08, 0x59, 0x15, 0x3f, 0x7c, 0x28, 0x46, 0xbf, 0xa9, 0xb1, 0xbd, 0xbe,
  0x32, 0xae, 0xb2, 0x3e, 0x75, 0x44, 0x2d, 0x3c, 0xa8, 0x53, 0x87, 0xbe,
  0xcd, 0xdc, 0x8a, 0x3d, 0x2d, 0x79, 0x57, 0x3e, 0x7f, 0x1f, 0x7a, 0xbe,
  0xf3, 0x18, 0xc3, 0xbe, 0xf1, 0xf8, 0x07, 0x3f, 0xb3, 0x53, 0x8f, 0x3e,
  0x21, 0x95, 0x8d, 0x3e, 0x82, 0x88, 0xa0, 0x3d, 0x14, 0x77, 0x32, 0x3d,
  0x33, 0xb5, 0x24, 0xbc, 0xb8, 0xb3, 0x4b, 0x3e, 0x5a, 0xbf, 0x0a, 0xbb,
  0x93, 0x5b, 0xb2, 0xbd, 0x40, 0xc0, 0xbb, 0x3e, 0xe9, 0x49, 0x4f, 0x3d,
  0xd0, 0x92, 0xfd, 0x3d, 0x1a, 0x85, 0x03, 0x3d, 0x9f, 0xd6, 0x65, 0x3e,
  0x66, 0xd4, 0x84, 0xbe, 0x00, 0x06, 0xb4, 0xbe, 0xce, 0x6a, 0x9a, 0xbe,
  0x99, 0x90, 0x6c, 0x3e, 0x81, 0xba, 0x97, 0x3e, 0xd9, 0xff, 0x37, 0x3d,
  0x29, 0xce, 0x9a, 0x3d, 0xe9, 0x2f, 0x4c, 0x3b, 0xd4, 0x4f, 0xca, 0xbe,
  0xe1, 0x5b, 0xd1, 0xbe, 0xdc, 0xbe, 0x0a, 0x3c, 0x1c, 0x80, 0x31, 0x3e,
  0xa0, 0x03, 0x82, 0xbe, 0x32, 0x96, 0x63, 0xbe, 0xc9, 0xca, 0xcc, 0xbc,
  0xbb, 0xb7, 0x9b, 0x3e, 0x72, 0x9f, 0x41, 0xbe, 0x76, 0x4b, 0xda, 0xbe,
  0x66, 0xa9, 0x3a, 0xbf, 0x5f, 0x7c, 0x22, 0x3e, 0xcb, 0x0a, 0xc3, 0x3c,
  0x86, 0xb3, 0x14, 0x3d, 0xca, 0x70, 0xba, 0xbe, 0x53, 0x10, 0xeb, 0xbd,
  0x51, 0x1e, 0xa3, 0x3e, 0x9b, 0x7b, 0x4f, 0x3d, 0x36, 0x35, 0x9f, 0x3d,
  0xaa, 0x09, 0xcf, 0x3e, 0xb1, 0x2a, 0xb3, 0x3c, 0x9e, 0xc1, 0x16, 0x3e,
  0xb6, 0x6e, 0x2e, 0xb9, 0xe1, 0xf7, 0x67, 0x3e, 0x5f, 0x33, 0x8c, 0xbe,
  0x17, 0xf9, 0x9a, 0xbe, 0xc3, 0x41, 0x66, 0x3d, 0x97, 0x7d, 0x8a, 0x3e,
  0x18, 0xec, 0x87, 0x3e, 0x26, 0x16, 0x10, 0x3d, 0x8a, 0x2a, 0x03, 0xbd,
  0x38, 0x15, 0xce, 0xbd, 0x12, 0xe1, 0xff, 0xff, 0x10, 0x00, 0x00, 0x00,
  0x08, 0x00, 0x00, 0x00, 0x14, 0x00, 0x00, 0x00, 0x30, 0x00, 0x00, 0x00,
  0x02, 0x00, 0x00, 0x00, 0x04, 0x00, 0x00, 0x00, 0x10, 0x00, 0x00, 0x00,
  0x19, 0x00, 0x00, 0x00, 0x73, 0x65, 0x71, 0x75, 0x65, 0x6e, 0x74, 0x69,
  0x61, 0x6c, 0x2f, 0x64, 0x65, 0x6e, 0x73, 0x65, 0x5f, 0x31, 0x2f, 0x4d,
  0x61, 0x74, 0x4d, 0x75, 0x6c, 0x00, 0x00, 0x00, 0x80, 0xe0, 0xff, 0xff,
  0x8a, 0xe1, 0xff, 0xff, 0x04, 0x00, 0x00, 0x00, 0x00, 0x1c, 0x00, 0x00,
  0xbe, 0x05, 0x6a, 0xbd, 0xb7, 0xe0, 0xa4, 0xbe, 0xa0, 0xd7, 0xde, 0xbd,
  0x5b, 0x0c, 0x58, 0x3d, 0xdd, 0x03, 0x9d, 0x3f, 0xb0, 0xa0, 0x69, 0xbd,
  0xa7, 0x67, 0x41, 0xbc, 0x85, 0x9a, 0x32, 0xbe, 0x4b, 0x5d, 0x1e, 0xbe,
  0x1c, 0x6e, 0x0d, 0x3e, 0x08, 0xcf, 0xbe, 0xbe, 0xba, 0x86, 0x55, 0xbb,
  0x5b, 0x13, 0xfc, 0xbc, 0x13, 0x5d, 0x23, 0xbd, 0x79, 0x71, 0x8a, 0xbd,
  0x29, 0x2a, 0xd2, 0xbd, 0xe0, 0xf3, 0x03, 0xbe, 0x04, 0x3b, 0x37, 0xbe,
  0xe4, 0x8d, 0x10, 0xbe, 0xa4, 0xe6, 0x09, 0xbe, 0x3b, 0x79, 0xd1, 0x3f,
  0xc3, 0x3c, 0x18, 0x3d, 0xcc, 0x0d, 0x48, 0x3d, 0x32, 0x06, 0x6f, 0xbe,
  0x5e, 0x81, 0xaa, 0x3d, 0x84, 0x3a, 0xad, 0xbd, 0x92, 0x0e, 0x3d, 0x3d,
  0xe7, 0x32, 0xc8, 0xbd, 0xae, 0x08, 0x0f, 0xbd, 0x73, 0xd2, 0x23, 0xbe,
  0x9b, 0x85, 0x5a, 0xbd, 0x4e, 0xf4, 0x3a, 0xbe, 0xbc, 0x5d, 0x23, 0xbe,
  0xee, 0x78, 0x6f, 0xbe, 0x57, 0x8b, 0xa5, 0x3d, 0x52, 0x1b, 0xba, 0xbd,
  0x01, 0xa3, 0xc2, 0x3f, 0x5f, 0xfb, 0x5e, 0xbd, 0x2c, 0x6f, 0x61, 0xbd,
  0xb0, 0xfc, 0x7b, 0x3d, 0x39, 0x9a, 0xb6, 0xbc, 0x69, 0xdf, 0x4b, 0xbe,
  0xb5, 0x5a, 0x3f, 0xbd, 0x01, 0xc0, 0x01, 0x3e, 0x0b, 0xb6, 0x3c, 0xbe,
  0x52, 0xc6, 0x20, 0xbe, 0xa7, 0xa3, 0xbf, 0xbd, 0xbe, 0x34, 0x90, 0xbd,
  0x2a, 0x92, 0x71, 0xbe, 0x3a, 0x97, 0x1e, 0x3d, 0xbc, 0x1b, 0x2a, 0xbe,
  0x7c, 0x09, 0x6a, 0xbe, 0x9e, 0x52, 0xbc, 0x3f, 0xd4, 0x9e, 0x25, 0x3e,
  0xea, 0x37, 0x85, 0x3d, 0x4b, 0xf3, 0x86, 0xbe, 0xf4, 0x99, 0xfa, 0x3d,
  0x1f, 0xe9, 0xcd, 0x3d, 0x9f, 0x5a, 0x9a, 0x3d, 0x8d, 0x47, 0x02, 0xbe,
  0x12, 0x62, 0x38, 0x3e, 0x56, 0x9e, 0xfe, 0x3d, 0xe2, 0x1e, 0x2a, 0xbe,
  0x09, 0x6c, 0xb3, 0xbe, 0x52, 0xcc, 0x8e, 0xbe, 0x3e, 0x48, 0x40, 0xbe,
  0x5e, 0xfd, 0x97, 0x3c, 0x33, 0xe2, 0xae, 0x3d, 0xc1, 0xcc, 0x94, 0x3f,
  0xd3, 0x58, 0x9f, 0x3b, 0xcf, 0x18, 0x52, 0xbe, 0x25, 0x33, 0x34, 0xbe,
  0xc1, 0x23, 0xcd, 0xbd, 0x84, 0x9d, 0xd2, 0xbd, 0xfb, 0x88, 0xe6, 0xbd,
  0x34, 0x4b, 0x51, 0xbe, 0xab, 0x41, 0xff, 0xbd, 0x41, 0x64, 0xcc, 0x3d,
  0x6c, 0x15, 0xcb, 0xbb, 0x14, 0xac, 0x01, 0xbd, 0xd2, 0xb8, 0x84, 0xbd,
  0x89, 0xe2, 0x81, 0xbe, 0xa8, 0x03, 0x34, 0xbe, 0xdc, 0x15, 0x4c, 0xbe,
  0x35, 0x05, 0xaf, 0x3f, 0xb9, 0x31, 0x97, 0xbd, 0x30, 0x10, 0x00, 0xbe,
  0x6c, 0x85, 0x64, 0xbd, 0x27, 0x21, 0x34, 0xbc, 0x18, 0x1e, 0x35, 0xbe,
  0xa4, 0xfe, 0x85, 0xbe, 0x0f, 0x0f, 0x33, 0xbe, 0xb7, 0x61, 0x0d, 0xbe,
  0xb5, 0x63, 0x7c, 0xbe, 0xf5, 0x90, 0x20, 0x3e, 0x8f, 0x1e, 0x6b, 0xbd,
  0x33, 0x7f, 0xb7, 0xbb, 0x21, 0xc6, 0xbf, 0xbd, 0x06, 0x16, 0x3b, 0xbe,
  0x81, 0x3b, 0x94, 0x3d, 0x1c, 0xa8, 0x6a, 0x3f, 0xdd, 0xc6, 0x35, 0xbd,
  0x8d, 0xb5, 0xe6, 0x3c, 0x8a, 0xa1, 0x18, 0xbe, 0x2a, 0x7d, 0x9f, 0xbe,
  0x74, 0xf8, 0x8e, 0x3d, 0xd2, 0x69, 0x88, 0x3c, 0xc2, 0xe4, 0xc2, 0x3d,
  0xa3, 0xed, 0x0d, 0xbe, 0x22, 0x29, 0x88, 0xbe, 0xbd, 0x36, 0xf3, 0x3c,
  0x50, 0x8f, 0x38, 0xbd, 0x53, 0xe1, 0x7b, 0xbe, 0x05, 0x95, 0x85, 0xbd,
  0xc8, 0x68, 0x13, 0xbe, 0x4b, 0x75, 0xa5, 0xbd, 0xba, 0x76, 0x65, 0x3d,
  0xa1, 0x7d, 0xd7, 0xbd, 0x01, 0x14, 0x97, 0xbd, 0xeb, 0x41, 0xd6, 0x3d,
  0x2a, 0xff, 0x33, 0xbe, 0xf5, 0x7d, 0xce, 0x3c, 0xe4, 0xd6, 0x5d, 0x3e,
  0xa3, 0x1f, 0x11, 0x3c, 0x4a, 0xcc, 0xa7, 0x3e, 0x37, 0xc0, 0x82, 0xbe,
  0x5c, 0x4f, 0x03, 0x3d, 0x87, 0xb7, 0x4b, 0xbe, 0xf1, 0x43, 0x82, 0xbd,
  0x4d, 0x1e, 0x64, 0xbe, 0xbc, 0xbb, 0x0a, 0x3e, 0xc2, 0xe9, 0x52, 0xbe,
  0x60, 0x13, 0xf5, 0xbd, 0xee, 0x28, 0x92, 0xbe, 0x71, 0x30, 0x41, 0xbe,
  0x22, 0xbf, 0x5c, 0x3e, 0x91, 0xc0, 0x13, 0xbe, 0x2b, 0xdf, 0x54, 0xbe,
  0x41, 0x63, 0xa2, 0x3b, 0x54, 0x4b, 0xb1, 0xbd, 0x19, 0xa7, 0xc7, 0x3d,
  0x4a, 0xb4, 0xcd, 0xbd, 0x01, 0x48, 0x8d, 0xbe, 0x27, 0x24, 0xce, 0xbe,
  0x85, 0xab, 0x12, 0xbe, 0xcf, 0x68, 0x4a, 0xbe, 0x28, 0x94, 0x79, 0xbe,
  0x84, 0x0e, 0x8c, 0xbd, 0x18, 0xa2, 0xa0, 0xbd, 0xfe, 0xd1, 0x3e, 0xbe,
  0x42, 0xe5, 0x39, 0xbe, 0xd6, 0xcb, 0xe1, 0x3b, 0x97, 0x1a, 0xe5, 0x3d,
  0x40, 0x48, 0xf1, 0xbb, 0x1f, 0xe8, 0x9e, 0x3e, 0x3d, 0xe5, 0x16, 0xbe,
  0x38, 0x30, 0xb1, 0x3e, 0x75, 0xe8, 0x15, 0x3e, 0xed, 0xea, 0x9d, 0xba,
  0xa1, 0xc6, 0x97, 0xbe, 0x4d, 0xdf, 0x7c, 0xbd, 0x68, 0xd1, 0xc5, 0xbe,
  0xba, 0x12, 0x6b, 0x3c, 0x2c, 0x4f, 0x0d, 0xbe, 0x1f, 0xa3, 0x26, 0xbe,
  0x34, 0xc5, 0xb4, 0xbd, 0xf1, 0x1a, 0xec, 0xbd, 0xd0, 0xe8, 0x2d, 0xbe,
  0x3d, 0xde, 0x3b, 0x3d, 0xc7, 0xb0, 0x12, 0x3d, 0x60, 0x35, 0x55, 0xbe,
  0x81, 0xa1, 0x99, 0x3d, 0xb8, 0x8b, 0x0b, 0x3d, 0x51, 0x94, 0x7c, 0x39,
  0x91, 0x96, 0x04, 0x3e, 0x14, 0x64, 0x08, 0xbd, 0x55, 0x35, 0x82, 0xbe,
  0x28, 0x58, 0x83, 0xbe, 0x7e, 0x3b, 0x13, 0xbd, 0x57, 0x16, 0xb0, 0xbd,
  0x9c, 0xfe, 0x1f, 0xbe, 0x69, 0xbc, 0x81, 0xbe, 0xd6, 0x07, 0x13, 0x3e,
  0xcf, 0x5e, 0x4c, 0xbd, 0x8d, 0x6e, 0x6f, 0x3e, 0x7b, 0x66, 0x1c, 0x3d,
  0x81, 0x6c, 0x0e, 0x3e, 0x2d, 0x95, 0xde, 0x3d, 0x46, 0x33, 0x62, 0x3e,
  0x62, 0x6d, 0x89, 0x3e, 0x74, 0xc9, 0xbc, 0xbd, 0xd3, 0x0d, 0x1d, 0xbd,
  0x60, 0xd1, 0x6d, 0xbd, 0x15, 0x93, 0xad, 0xbe, 0xab, 0x1e, 0xcb, 0xbe,
  0x0c, 0x91, 0x4c, 0xbe, 0xef, 0x57, 0xcf, 0x3d, 0x70, 0x03, 0x28, 0x3d,
  0xf5, 0xf2, 0xff, 0xbd, 0xf4, 0x94, 0x94, 0xbd, 0xad, 0x35, 0x68, 0xbd,
  0xd2, 0x55, 0xf6, 0x3d, 0x03, 0xd7, 0x27, 0x3e, 0xee, 0xa2, 0xd0, 0xbd,
  0xf3, 0x1a, 0x83, 0x3e, 0x6c, 0x3c, 0xbe, 0xbd, 0xda, 0x76, 0x0b, 0xbe,
  0x0c, 0x90, 0x78, 0xbd, 0x12, 0xa9, 0xa8, 0x3b, 0xd4, 0xb7, 0xe2, 0xbe,
  0x21, 0x6e, 0x6e, 0xbe, 0xf7, 0x8a, 0x21, 0xbe, 0xa5, 0x71, 0x3c, 0x3e,
  0x29, 0x45, 0xc8, 0xbd, 0xe3, 0xe8, 0x59, 0xbe, 0xe2, 0x84, 0x47, 0xbe,
  0xf3, 0x8e, 0xab, 0x3c, 0x3b, 0x14, 0x5d, 0xbe, 0x72, 0x86, 0x1a, 0xbd,
  0x39, 0xfb, 0x20, 0x3d, 0xb9, 0xc8, 0x83, 0xbe, 0x1f, 0x2a, 0x50, 0x3e,
  0x8b, 0x87, 0xad, 0xbb, 0x2d, 0xb8, 0x84, 0xbc, 0x30, 0x4c, 0x66, 0x3d,
  0x88, 0x3c, 0x5a, 0xbe, 0x0a, 0x1e, 0xe2, 0xbd, 0xf1, 0xec, 0x10, 0xbc,
  0x5a, 0xcd, 0x7c, 0xbc, 0xe1, 0x9c, 0x1d, 0xbe, 0x04, 0x53, 0xba, 0x3b,
  0x62, 0x5b, 0xae, 0xbd, 0x26, 0xa0, 0x68, 0xbe, 0x93, 0x3a, 0x0f, 0x3d,
  0x19, 0xbf, 0x4f, 0x3e, 0x9f, 0x53, 0x3a, 0xbe, 0x18, 0x61, 0x80, 0x3e,
  0x8a, 0xde, 0x99, 0xbe, 0x94, 0x7b, 0xb2, 0x3d, 0x0d, 0x2b, 0x31, 0x3e,
  0xfe, 0x4b, 0x09, 0x3e, 0x93, 0xfd, 0x90, 0xbe, 0x66, 0x96, 0x12, 0xbe,
  0xa4, 0x5c, 0x07, 0x3e, 0x0d, 0x9a, 0xf7, 0xbd, 0x6d, 0xc4, 0x3d, 0xbd,
  0xe8, 0x7e, 0x84, 0x3e, 0xd9, 0xfa, 0xbd, 0xbd, 0xde, 0xe3, 0x3f, 0xbd,
  0x08, 0xf0, 0x56, 0x3c, 0x99, 0x75, 0xe5, 0x3d, 0xa5, 0xf4, 0xed, 0xbd,
  0x9f, 0x51, 0x5e, 0x3e, 0xb0, 0x3b, 0x3e, 0x3e, 0xb2, 0x6a, 0x82, 0xbe,
  0xa2, 0xf7, 0x86, 0x3e, 0x62, 0xae, 0x88, 0xbd, 0xfb, 0x27, 0x54, 0xbe,
  0x74, 0x35, 0x4c, 0xbe, 0x4e, 0x51, 0x5d, 0xbe, 0x01, 0xfc, 0x70, 0xbd,
  0xab, 0x18, 0x38, 0x3e, 0xae, 0x85, 0x06, 0x3e, 0x4d, 0xb6, 0x97, 0xbe,
  0xd9, 0x87, 0x19, 0x3d, 0xa3, 0x47, 0x65, 0xbd, 0xd4, 0xd3, 0x90, 0xbd,
  0xb7, 0xbf, 0x72, 0xbd, 0x13, 0x0a, 0x24, 0xbc, 0xa0, 0xfc, 0x9a, 0x3d,
  0x1a, 0xfd, 0xe7, 0xbc, 0xa7, 0x6f, 0x8b, 0x3d, 0x14, 0x7d, 0xa4, 0xbc,
  0xe9, 0x0d, 0x94, 0xbe, 0xc3, 0xfb, 0x9a, 0xbd, 0xe1, 0xff, 0xf5, 0x3d,
  0x97, 0x66, 0xaf, 0xbd, 0x2a, 0xa1, 0xaa, 0xbd, 0x9a, 0x20, 0x69, 0x3d,
  0x62, 0xba, 0x98, 0xbe, 0xdb, 0xcb, 0x0d, 0xbd, 0xca, 0xf3, 0x54, 0xbc,
  0x3b, 0x40, 0xa6, 0x3d, 0x74, 0x6e, 0x9c, 0x3d, 0x44, 0x32, 0x40, 0xbd,
  0xa2, 0xab, 0xad, 0x3d, 0x22, 0xe9, 0xba, 0x3e, 0xde, 0x50, 0xa5, 0xbd,
  0x58, 0xe3, 0xbd, 0x3c, 0xe0, 0x15, 0xbc, 0xbe, 0x76, 0x57, 0x19, 0xbe,
  0xe1, 0x16, 0x32, 0xbe, 0x58, 0x4f, 0x14, 0xbe, 0xfb, 0x21, 0xb4, 0xbd,
  0x29, 0xb2, 0x5c, 0x3d, 0x49, 0x54, 0x4b, 0xbe, 0x4c, 0x90, 0xf6, 0x3d,
  0x66, 0xda, 0x20, 0x3e, 0x31, 0x75, 0xe4, 0x3d, 0x85, 0xef, 0x9c, 0xbd,
  0x72, 0x98, 0x88, 0x3d, 0xa3, 0x20, 0xea, 0xbc, 0xff, 0x7c, 0x13, 0x3e,
  0x46, 0x0d, 0xbd, 0x3c, 0xcf, 0x61, 0xd7, 0xbd, 0xef, 0x8d, 0x1b, 0xbe,
  0xdd, 0x4f, 0x0b, 0xbe, 0xd0, 0x48, 0x88, 0x3d, 0x70, 0xb0, 0x4c, 0x3d,
  0x0e, 0x05, 0x0c, 0xbe, 0xf4, 0xbb, 0xe3, 0x3d, 0xac, 0xe3, 0xae, 0xbe,
  0xdd, 0x71, 0x77, 0xbd, 0xa8, 0xeb, 0x28, 0x3e, 0x43, 0xff, 0x29, 0xbe,
  0x3b, 0x8b, 0x68, 0xbe, 0xc0, 0x6f, 0x59, 0xbc, 0xec, 0xa9, 0xff, 0x3d,
  0x5a, 0x3b, 0x47, 0x3d, 0x69, 0xe3, 0xc6, 0x3d, 0x43, 0xa2, 0x23, 0xbd,
  0xa3, 0xd0, 0x42, 0x3d, 0x12, 0x1e, 0xd1, 0xbd, 0x21, 0x85, 0xdc, 0x3d,
  0x2d, 0x7c, 0x9e, 0xbc, 0x7e, 0x51, 0xa4, 0xbd, 0xc0, 0xec, 0xdf, 0xbc,
  0x45, 0x27, 0xcf, 0xbd, 0xc6, 0xc0, 0x33, 0xbe, 0xdd, 0x02, 0x2e, 0x3d,
  0x73, 0xad, 0xc9, 0x3d, 0x4d, 0x26, 0x6f, 0x3d, 0x7e, 0x0d, 0xfb, 0x3c,
  0x44, 0x8e, 0x63, 0x3d, 0x44, 0x4d, 0x3e, 0x3e, 0xd2, 0xe9, 0x8d, 0x3d,
  0xf6, 0x13, 0x99, 0x3d, 0x41, 0xa0, 0x05, 0x3e, 0x17, 0xef, 0x74, 0x3d,
  0xca, 0xbb, 0xfd, 0xbd, 0xc7, 0x6b, 0x7a, 0xbd, 0xe9, 0xa7, 0x53, 0xbe,
  0x11, 0x15, 0x0f, 0xbf, 0x58, 0xed, 0x5e, 0x3d, 0xc9, 0x23, 0xe4, 0xbd,
  0xca, 0xc7, 0x0c, 0xbf, 0x0b, 0xc9, 0x36, 0x3e, 0x76, 0x0e, 0x33, 0xbe,
  0xa3, 0xf5, 0x3e, 0x3e, 0xa0, 0x63, 0x51, 0xbd, 0x17, 0x31, 0xf8, 0xbe,
  0x4e, 0xf2, 0x0f, 0xbd, 0x0c, 0xd8, 0x9f, 0x3b, 0xfe, 0xeb, 0x8d, 0xbd,
  0x20, 0xd6, 0xc3, 0x3d, 0x08, 0x77, 0x1a, 0xbe, 0xbc, 0x45, 0x48, 0xbe,
  0xb2, 0x7a, 0xba, 0xbe, 0x7d, 0x89, 0x02, 0xbf, 0xcd, 0xbf, 0x2e, 0x3d,
  0x4b, 0xaa, 0xa2, 0x3e, 0x20, 0xb3, 0x0f, 0x3f, 0x1c, 0x35, 0xec, 0x3d,
  0x45, 0xe4, 0x69, 0xbe, 0xc2, 0xd8, 0x91, 0x3e, 0x57, 0xd9, 0xf8, 0x3d,
  0xd0, 0x4f, 0x34, 0xbf, 0xa3, 0xd9, 0xe7, 0x3d, 0xec, 0xf6, 0x88, 0x39,
  0xe5, 0x2b, 0xba, 0x3a, 0x8d, 0x7c, 0x44, 0x3d, 0xb8, 0x04, 0x11, 0x3c,
  0x7c, 0x10, 0xd6, 0xbe, 0xaa, 0x3b, 0xec, 0xbd, 0x40, 0x41, 0x2e, 0xbd,
  0x5f, 0xf0, 0x9c, 0x3d, 0xe4, 0x22, 0xb7, 0x3e, 0xb2, 0xcd, 0xa7, 0x3e,
  0x2c, 0xe0, 0x99, 0xbd, 0xb0, 0xc3, 0x83, 0xbe, 0x40, 0xcd, 0x98, 0x3c,
  0x96, 0x49, 0x62, 0x3d, 0x22, 0x26, 0xfb, 0xbe, 0x68, 0x56, 0xbe, 0x3d,
  0x5c, 0x36, 0x3e, 0x3b, 0xbd, 0x00, 0xe2, 0x3c, 0x7c, 0xd6, 0x39, 0x3d,
  0x4d, 0x39, 0x58, 0x3d, 0xf8, 0x62, 0x88, 0xbe, 0xc9, 0xe0, 0x58, 0xbe,
  0x78, 0x7e, 0xc6, 0xbd, 0x78, 0x76, 0x08, 0x3d, 0x47, 0x09, 0x9f, 0x3e,
  0x7d, 0x6a, 0xe0, 0x3d, 0xe4, 0x37, 0xfb, 0xbc, 0xdf, 0x1c, 0x0b, 0xbe,
  0x71, 0xec, 0x40, 0x3e, 0x15, 0xae, 0x71, 0x3e, 0xe2, 0xf1, 0xa7, 0xbd,
  0xf7, 0xed, 0xad, 0x3d, 0x4e, 0x41, 0xef, 0x3c, 0x17, 0x55, 0x80, 0xbd,
  0x6f, 0xda, 0x27, 0x3d, 0x20, 0xf3, 0x43, 0x3c, 0x23, 0xf9, 0x0f, 0xbe,
  0x26, 0x93, 0x92, 0xbe, 0xca, 0x5d, 0x97, 0xbe, 0xb0, 0x00, 0x1d, 0x3d,
  0xfa, 0xed, 0x90, 0x3e, 0x0e, 0xec, 0x1d, 0xbe, 0x0c, 0xe3, 0x24, 0xbe,
  0x50, 0xb7, 0x38, 0xbe, 0xac, 0x02, 0xd9, 0xbd, 0x7c, 0x7e, 0xe4, 0x3d,
  0xaa, 0xc0, 0x14, 0xbe, 0x80, 0xd5, 0x7f, 0x3d, 0x09, 0x9c, 0x32, 0xbc,
  0x21, 0xcc, 0x66, 0xbd, 0xf6, 0xfb, 0x36, 0x3c, 0x74, 0xee, 0x47, 0xbd,
  0x26, 0xdc, 0xf3, 0xbd, 0xa0, 0x03, 0x9f, 0xbe, 0xe7, 0x48, 0xeb, 0xbe,
  0xad, 0x3a, 0x14, 0x3d, 0xdd, 0xb5, 0xa3, 0x3e, 0x8f, 0xc9, 0x17, 0xbf,
  0x3b, 0x43, 0x72, 0xbe, 0xbb, 0x0c, 0x9f, 0xbe, 0x00, 0xa9, 0x61, 0xbd,
  0x49, 0x41, 0x52, 0xbe, 0x70, 0xfc, 0xcc, 0xbe, 0xd2, 0x28, 0x99, 0x3d,
  0xec, 0xe5, 0xa2, 0x3d, 0xc8, 0xf6, 0xfc, 0xbc, 0xc1, 0x25, 0x11, 0x3d,
  0xc9, 0x89, 0x08, 0xbe, 0x21, 0x0b, 0x3b, 0xbd, 0x70, 0x16, 0x4b, 0xbe,
  0xb0, 0xff, 0x48, 0xbd, 0x68, 0xca, 0x8d, 0xba, 0xe3, 0xe7, 0x3d, 0x3d,
  0xdd, 0x2b, 0x40, 0xbd, 0x11, 0xa0, 0x16, 0x3c, 0x5f, 0x7e, 0xee, 0xbe,
  0x00, 0xa3, 0x65, 0xbe, 0x25, 0x4a, 0xc4, 0x3c, 0x5a, 0x4a, 0x45, 0xbe,
  0x81, 0x67, 0xdf, 0x3c, 0x14, 0x2c, 0x6b, 0xbc, 0x64, 0x33, 0x62, 0x3d,
  0xa7, 0x08, 0x6d, 0xbc, 0x0f, 0x12, 0x3a, 0x3d, 0x54, 0xa9, 0xb3, 0xbc,
  0x39, 0xa8, 0x63, 0xbc, 0x73, 0xf9, 0x05, 0x3e, 0x26, 0xfb, 0x05, 0x3f,
  0xcc, 0x05, 0xab, 0x3e, 0x42, 0xc4, 0x72, 0xbe, 0x9a, 0xea, 0xb6, 0x3d,
  0x77, 0xe4, 0xae, 0x3c, 0x5f, 0xaf, 0xbb, 0x3e, 0xfb, 0x99, 0x4f, 0xbd,
  0xf2, 0xc8, 0x87, 0xbe, 0xd2, 0x7b, 0x68, 0x3e, 0xfe, 0xe3, 0x87, 0x3d,
  0x10, 0x6f, 0xdd, 0xbd, 0x17, 0x83, 0x56, 0x3d, 0xf1, 0x81, 0x27, 0x3e,
  0x0e, 0x12, 0x02, 0xbe, 0x46, 0x5f, 0xdb, 0x3b, 0x56, 0x19, 0xdf, 0x3c,
  0x41, 0xd3, 0xb3, 0x3d, 0x6c, 0xda, 0x2f, 0xbe, 0x5b, 0x06, 0x33, 0x3e,
  0xa9, 0xa6, 0xca, 0x3d, 0xaa, 0xc1, 0xf0, 0xbe, 0xcf, 0x2e, 0xe2, 0xbd,
  0x58, 0xbb, 0x17, 0x3e, 0xf2, 0xb5, 0x79, 0xbd, 0x1f, 0x4a, 0x37, 0x3e,
  0xf7, 0x0e, 0x27, 0x3d, 0xe6, 0x3d, 0xc2, 0xbe, 0x16, 0xfb, 0xf4, 0x3c,
  0xcf, 0x9c, 0x20, 0x3e, 0x53, 0x1b, 0x13, 0xbe, 0x2e, 0xcd, 0x1a, 0x3d,
  0x43, 0x2b, 0x4c, 0xbc, 0x9e, 0x73, 0x1c, 0xbe, 0x57, 0x00, 0x01, 0xbf,
  0x52, 0x16, 0x36, 0x3e, 0x39, 0x7a, 0xea, 0x3d, 0xf2, 0x2c, 0x26, 0xbf,
  0x13, 0x86, 0x20, 0xbe, 0xe2, 0x79, 0x9d, 0xbd, 0x21, 0x93, 0xb5, 0xbe,
  0x39, 0x95, 0xc4, 0x3d, 0xb1, 0x9a, 0x70, 0x3d, 0x0f, 0x46, 0x84, 0xbe,
  0x73, 0xd9, 0xf6, 0x3c, 0x66, 0x1a, 0xb2, 0xbd, 0x04, 0x9c, 0x1a, 0xbe,
  0x93, 0x2e, 0x40, 0xbe, 0xdf, 0x57, 0xa6, 0xbd, 0x7d, 0x31, 0x07, 0xbe,
  0x03, 0xf3, 0x23, 0xbf, 0x72, 0x72, 0x82, 0xbd, 0xdc, 0xfa, 0x67, 0x3d,
  0xdc, 0x25, 0xef, 0xbe, 0x31, 0x1e, 0x59, 0xbe, 0x34, 0x75, 0xa7, 0xbe,
  0x64, 0xd0, 0x96, 0xbd, 0xf8, 0x3b, 0xa6, 0x3d, 0x3a, 0x9f, 0xea, 0x3c,
  0x01, 0xc6, 0x98, 0xbe, 0x46, 0x59, 0x87, 0x3d, 0xe3, 0xac, 0xbd, 0x3c,
  0xac, 0x14, 0xbe, 0xbc, 0x65, 0x99, 0xd0, 0xbd, 0x16, 0xbb, 0x68, 0x3d,
  0x48, 0xf5, 0x06, 0xbe, 0x7a, 0xd2, 0xf2, 0xbe, 0x96, 0x5d, 0x42, 0x3e,
  0xe2, 0xa6, 0x8d, 0xbd, 0xf3, 0xad, 0x8a, 0xbe, 0x5f, 0xb8, 0xa3, 0xbe,
  0x24, 0x19, 0xc2, 0x3c, 0xe6, 0x3f, 0x2a, 0x3d, 0x82, 0x16, 0x16, 0x3d,
  0xc7, 0x64, 0xa3, 0x3d, 0xa7, 0x39, 0x17, 0xbe, 0x7a, 0x23, 0x97, 0x3b,
  0x01, 0x2b, 0x33, 0xbe, 0xe5, 0x87, 0x01, 0xbe, 0xad, 0x81, 0x87, 0xbe,
  0xc8, 0x57, 0x86, 0xbc, 0xe5, 0xed, 0x3b, 0xbe, 0x9e, 0x3b, 0x23, 0xbf,
  0x9c, 0x07, 0x46, 0xbe, 0xc3, 0xd2, 0x65, 0xbd, 0xa0, 0xe4, 0xaa, 0xbe,
  0x41, 0xcd, 0x6c, 0xbe, 0xb5, 0xb3, 0xc7, 0xbd, 0xce, 0x12, 0x9e, 0xba,
  0x47, 0x10, 0x14, 0x3d, 0x1d, 0xde, 0x40, 0x3d, 0x9c, 0x18, 0xb5, 0x3d,
  0x0d, 0x62, 0x09, 0xbd, 0xe6, 0xf6, 0x5a, 0xbe, 0x66, 0xf9, 0x55, 0x3d,
  0x0f, 0x18, 0x25, 0xbe, 0x8d, 0xf5, 0xcd, 0x39, 0xf8, 0xa8, 0xc1, 0xbd,
  0x45, 0x61, 0xa2, 0xbe, 0x02, 0x29, 0xc4, 0x3b, 0xf7, 0x9b, 0x04, 0x3e,
  0xeb, 0x1f, 0x84, 0xbc, 0x31, 0xe2, 0x31, 0xbc, 0xa5, 0xb6, 0xcc, 0xbc,
  0x47, 0x44, 0x68, 0x3d, 0x81, 0xd3, 0x24, 0x3c, 0x34, 0x1c, 0xa6, 0xbe,
  0xe3, 0xee, 0x70, 0xbe, 0x21, 0xbc, 0x7f, 0xbd, 0x11, 0xb8, 0xa7, 0x3c,
  0xeb, 0x7d, 0xca, 0xbd, 0x24, 0x88, 0x9e, 0x3d, 0x81, 0xdd, 0x3f, 0x3a,
  0x3e, 0x7c, 0xe0, 0xbc, 0x20, 0xd0, 0xae, 0xbe, 0x50, 0x07, 0x5b, 0xbe,
  0xa8, 0xcf, 0x1f, 0x3e, 0xcc, 0xe8, 0x21, 0xbe, 0x14, 0xa9, 0xb1, 0x3d,
  0x0f, 0x24, 0x1e, 0xbe, 0x61, 0xcb, 0xce, 0xbd, 0x78, 0x75, 0x92, 0x3d,
  0xcc, 0xa5, 0x60, 0xbe, 0xf9, 0x9d, 0x52, 0x3c, 0x96, 0x77, 0x8d, 0xbe,
  0x01, 0x46, 0x81, 0x3d, 0xe2, 0x95, 0xf4, 0x3b, 0xb2, 0x85, 0x9d, 0xbd,
  0xa9, 0xd5, 0x27, 0xbd, 0xbf, 0xdc, 0x2d, 0x3d, 0x97, 0xc5, 0x65, 0x3d,
  0x55, 0x51, 0x96, 0xbd, 0xb7, 0x36, 0xa2, 0xbb, 0x68, 0xe1, 0x12, 0xbe,
  0x66, 0xce, 0xbf, 0x3c, 0xdc, 0xf4, 0x84, 0x3d, 0x4f, 0x60, 0x34, 0xbe,
  0x4d, 0x38, 0x70, 0xbe, 0x9f, 0xc7, 0xac, 0x3c, 0x1f, 0x9c, 0x35, 0xbe,
  0x22, 0xec, 0x2f, 0x3b, 0x91, 0xca, 0x5c, 0xbe, 0xba, 0x49, 0xed, 0x3c,
  0xa7, 0xe6, 0xcd, 0xbd, 0x3b, 0xe9, 0x4b, 0x3d, 0x1f, 0xbf, 0x12, 0x3c,
  0x29, 0x19, 0x4b, 0x3e, 0xd7, 0x5f, 0x03, 0xbe, 0x2d, 0xaa, 0x64, 0x3d,
  0x03, 0x9e, 0x72, 0xbe, 0xee, 0x57, 0x58, 0x3e, 0x25, 0x3f, 0xcd, 0xbd,
  0x79, 0xb9, 0x8c, 0x3d, 0xbb, 0x32, 0x37, 0xbe, 0x0b, 0xe1, 0xaa, 0xbe,
  0xcb, 0x00, 0xdc, 0xbd, 0x76, 0x52, 0x94, 0x3b, 0x81, 0x0b, 0x19, 0xbd,
  0x56, 0x81, 0xb4, 0x3d, 0xeb, 0x35, 0x6c, 0xbe, 0xd8, 0x82, 0x1e, 0x3e,
  0xc5, 0x20, 0x45, 0x3d, 0x18, 0xdd, 0x6a, 0xbd, 0x11, 0xb0, 0x47, 0xbe,
  0x1b, 0xb6, 0x85, 0x3d, 0x89, 0x16, 0x30, 0x3c, 0xec, 0xd4, 0xb3, 0x3d,
  0x43, 0x8e, 0x7e, 0xbc, 0x5a, 0xc1, 0xc4, 0x3d, 0x2d, 0xe2, 0x20, 0x3d,
  0x7b, 0x0b, 0x4d, 0xbe, 0xe8, 0xbd, 0xa9, 0xbe, 0x1e, 0xe6, 0xe2, 0xbc,
  0x46, 0xa7, 0x34, 0x3e, 0x48, 0x66, 0x35, 0xbd, 0x93, 0x88, 0x95, 0xbe,
  0x57, 0x75, 0x26, 0xbe, 0x8c, 0x04, 0xc1, 0x3d, 0x23, 0xfe, 0x8e, 0xbd,
  0x69, 0x5b, 0x87, 0xbc, 0xd2, 0xfb, 0xa3, 0xbc, 0x83, 0x67, 0x38, 0x3d,
  0x14, 0x00, 0x5f, 0x3d, 0xb7, 0xac, 0xf1, 0xbd, 0xc7, 0x83, 0xc6, 0x3d,
  0xb0, 0x1e, 0xcc, 0x3c, 0xdb, 0x80, 0x85, 0xbe, 0x2a, 0x67, 0x0c, 0xbe,
  0xe4, 0xb5, 0xdf, 0xbd, 0xbe, 0x02, 0x69, 0x3c, 0x4d, 0xad, 0xcf, 0xbd,
  0x57, 0xb0, 0x85, 0xbd, 0x4c, 0x1d, 0x76, 0xbc, 0x67, 0xbd, 0x79, 0x3d,
  0x89, 0xf7, 0x56, 0x3e, 0x54, 0x9e, 0xeb, 0xbd, 0x89, 0xaf, 0x30, 0x3d,
  0xfa, 0x77, 0x31, 0xbe, 0xd4, 0xfa, 0xf0, 0xbd, 0x39, 0xbe, 0x4f, 0xbe,
  0x96, 0x12, 0x1a, 0xbe, 0x0c, 0x32, 0x9b, 0xbc, 0x9c, 0xa2, 0x3f, 0xbe,
  0x6e, 0x3d, 0x82, 0xbe, 0xe0, 0xec, 0xbc, 0xbd, 0x13, 0xdb, 0x62, 0xbd,
  0x37, 0xc6, 0x00, 0x3c, 0xc5, 0xe4, 0xa1, 0xbe, 0xa6, 0x79, 0xb0, 0xbd,
  0x23, 0xf3, 0x25, 0x3d, 0xad, 0xf0, 0x55, 0x3d, 0x48, 0x0d, 0x88, 0xbd,
  0x6b, 0x68, 0xe1, 0xbd, 0xc0, 0xdb, 0xdc, 0x3d, 0x3a, 0x2b, 0x59, 0xbd,
  0x6a, 0x9f, 0x3f, 0x3d, 0xcf, 0xa1, 0x07, 0x3e, 0x2d, 0x1d, 0xff, 0xbd,
  0x05, 0x12, 0x43, 0x3e, 0xf8, 0xf0, 0x7c, 0xbd, 0xa9, 0x9a, 0x70, 0xbc,
  0xd8, 0xe6, 0x03, 0xbb, 0xda, 0xb0, 0xce, 0xbd, 0x15, 0x62, 0xbd, 0x3d,
  0x3b, 0xd8, 0x69, 0xbe, 0xff, 0x9e, 0x06, 0xbf, 0x1f, 0x21, 0x6c, 0xbe,
  0x69, 0x4d, 0x19, 0x3e, 0x80, 0x5f, 0x8d, 0xbe, 0xa1, 0xe2, 0x93, 0xbc,
  0x10, 0x52, 0x2c, 0xbe, 0xc1, 0x89, 0x21, 0x3e, 0xba, 0x25, 0x02, 0x3e,
  0x71, 0x76, 0x4f, 0xbe, 0x17, 0x7f, 0xb8, 0xbe, 0x75, 0x35, 0x17, 0xbe,
  0xb5, 0xf8, 0x97, 0x3c, 0x7f, 0x31, 0xd7, 0xbd, 0x9a, 0x5e, 0x3e, 0xbe,
  0x43, 0x0e, 0x59, 0x3d, 0x2b, 0x4e, 0x3d, 0xbe, 0xdb, 0xc8, 0x25, 0x3e,
  0xcc, 0x62, 0x8f, 0x3c, 0xbb, 0x51, 0x25, 0xbc, 0xab, 0xf3, 0x30, 0xbe,
  0xa2, 0xea, 0x53, 0xbd, 0x47, 0x27, 0xf3, 0x3d, 0x78, 0x96, 0x59, 0xbc,
  0x34, 0xaa, 0x16, 0x3e, 0x60, 0x62, 0x99, 0x3c, 0x23, 0x16, 0x6a, 0xbe,
  0x02, 0x37, 0x86, 0x3d, 0x1a, 0xec, 0x73, 0xbc, 0xbb, 0x2a, 0x6f, 0x3d,
  0x63, 0xa9, 0x19, 0xbe, 0x53, 0x4c, 0xe8, 0x3c, 0x60, 0xd9, 0x6d, 0xbe,
  0x7b, 0x35, 0x14, 0x3e, 0x1b, 0xa7, 0x80, 0x3d, 0x5a, 0xf2, 0xa5, 0x3e,
  0x7d, 0xe6, 0x11, 0x3e, 0x87, 0x10, 0x62, 0x3e, 0xee, 0x84, 0x19, 0x3e,
  0xbe, 0xc9, 0x86, 0x3e, 0xe8, 0xe4, 0x9f, 0x3e, 0xfe, 0x48, 0x55, 0xbd,
  0x66, 0x40, 0x68, 0x3b, 0x43, 0xbc, 0x95, 0x3d, 0x4d, 0xfb, 0x76, 0x3d,
  0xb0, 0x8b, 0x28, 0x3e, 0xf6, 0x64, 0x6b, 0xbe, 0x77, 0xd1, 0x14, 0x3e,
  0x92, 0xbf, 0xad, 0xbe, 0xa0, 0x68, 0x93, 0x3d, 0xdd, 0xb1, 0x8d, 0xbd,
  0xf2, 0x40, 0x49, 0x3e, 0x86, 0x2b, 0x95, 0x3e, 0x93, 0x0b, 0x2d, 0x3e,
  0xc3, 0x0f, 0x03, 0x3e, 0x16, 0x6e, 0xee, 0x3e, 0xa8, 0xe5, 0xa1, 0x3d,
  0xb1, 0x32, 0x60, 0xbd, 0x2d, 0x47, 0x9e, 0xbd, 0x15, 0x75, 0x07, 0xbe,
  0x4d, 0xcc, 0xfc, 0xbb, 0xf2, 0xab, 0x49, 0xbd, 0xbb, 0xba, 0xb1, 0xbc,
  0x07, 0x3d, 0x09, 0x3e, 0x80, 0x2f, 0x84, 0xbe, 0x38, 0x3e, 0x92, 0x3d,
  0xd9, 0xa6, 0x5e, 0xbe, 0x16, 0xd2, 0xea, 0x3e, 0xb3, 0xeb, 0x4f, 0x3d,
  0x55, 0x38, 0x3c, 0x3e, 0xf7, 0x08, 0x06, 0xbd, 0x3d, 0xfe, 0x0f, 0x3e,
  0x1a, 0xd6, 0x15, 0x3e, 0x77, 0xa3, 0x24, 0x3d, 0x8b, 0xd4, 0x48, 0xbe,
  0x93, 0x04, 0x12, 0xbe, 0x9b, 0xf8, 0x9f, 0xbd, 0x93, 0x06, 0x36, 0x3e,
  0xd9, 0xef, 0x97, 0x3d, 0xf1, 0x85, 0x83, 0xbc, 0x49, 0xae, 0x8d, 0xbe,
  0xc9, 0x6e, 0xa1, 0xbb, 0x51, 0x69, 0x94, 0xbd, 0xf4, 0xf1, 0x31, 0x3e,
  0xca, 0x11, 0x40, 0xbe, 0xb6, 0x1c, 0x06, 0x3d, 0x7f, 0x30, 0x9e, 0xbd,
  0x42, 0x0a, 0x52, 0xbe, 0xb4, 0xf0, 0x86, 0x3e, 0x17, 0x96, 0x63, 0x3d,
  0x06, 0xc8, 0x38, 0xbd, 0xa2, 0xb1, 0x24, 0xbb, 0xee, 0xe9, 0xac, 0xbd,
  0x00, 0x28, 0xc1, 0xbd, 0x3f, 0x57, 0x14, 0x3e, 0x8a, 0xaa, 0x5a, 0xbe,
  0xf3, 0x32, 0x7c, 0xbe, 0xb4, 0x43, 0xda, 0xbc, 0x59, 0x2e, 0x1f, 0xbe,
  0xa4, 0xa7, 0x28, 0xbe, 0x5d, 0x8d, 0x33, 0x3d, 0x29, 0xbd, 0x6c, 0x3e,
  0x32, 0x8e, 0xe9, 0x3c, 0x33, 0xea, 0x0d, 0xbd, 0xe8, 0x2f, 0x8e, 0xbe,
  0xc8, 0xb5, 0x06, 0xbe, 0xe9, 0x13, 0x09, 0xbd, 0x1e, 0x97, 0x5c, 0xbd,
  0xc1, 0x2b, 0xe5, 0xbe, 0x1e, 0x3b, 0x05, 0xbd, 0xcf, 0xdc, 0x1b, 0x3e,
  0x7a, 0x6e, 0x10, 0x3e, 0x79, 0x67, 0x82, 0xbd, 0xf6, 0x05, 0x91, 0xbe,
  0xe3, 0xb4, 0xea, 0xbe, 0xcc, 0x4e, 0x03, 0xbc, 0x84, 0xd1, 0x5c, 0xbe,
  0x8c, 0x13, 0xf6, 0x3d, 0xdd, 0x8b, 0xd6, 0xbd, 0x9b, 0xe5, 0xad, 0xbe,
  0x92, 0x33, 0x95, 0x3d, 0x0a, 0x2d, 0x85, 0xbe, 0xde, 0x44, 0x95, 0x3e,
  0x64, 0xfe, 0x6e, 0x3e, 0x56, 0xb2, 0x1c, 0xbf, 0x4a, 0x85, 0x7c, 0xbd,
  0x07, 0xd4, 0xc1, 0x3d, 0xc6, 0xef, 0x9a, 0x3d, 0x80, 0xa8, 0xe7, 0xbc,
  0x11, 0xc0, 0xb0, 0xbe, 0xbe, 0x37, 0xb9, 0x3c, 0xfc, 0xb6, 0x38, 0x3e,
  0x8d, 0x3f, 0xc1, 0x3c, 0x2d, 0x29, 0xa4, 0x3e, 0x4d, 0xd5, 0x1d, 0xbe,
  0xa4, 0x1e, 0xb0, 0x3d, 0xe7, 0xa2, 0x89, 0xbe, 0x24, 0x39, 0x81, 0xbe,
  0xf2, 0xe1, 0x0b, 0x3e, 0x3c, 0x3f, 0x46, 0x3e, 0xe9, 0x8c, 0xee, 0xbe,
  0x95, 0x9f, 0x19, 0x3d, 0xba, 0x0b, 0x1f, 0xbd, 0x66, 0x01, 0x26, 0x3e,
  0xd5, 0x22, 0x2b, 0xbc, 0x70, 0x94, 0x1f, 0xbe, 0x8c, 0x8a, 0x28, 0xbe,
  0x05, 0xb0, 0x01, 0x3e, 0x2b, 0x74, 0xbc, 0x3d, 0x55, 0x91, 0x7b, 0x3e,
  0xf6, 0x4b, 0xcf, 0xbc, 0x6e, 0x21, 0x7a, 0xbe, 0x23, 0x59, 0x8f, 0x3d,
  0xc5, 0x89, 0x0f, 0xbe, 0x75, 0xfc, 0xeb, 0x3d, 0x5b, 0xa1, 0x8e, 0x3d,
  0x35, 0xf0, 0xa2, 0xbe, 0x0b, 0xc3, 0x08, 0xbe, 0xd9, 0x83, 0x84, 0xbe,
  0x6a, 0xab, 0x94, 0x3e, 0xd8, 0x0f, 0xa6, 0x3c, 0xe6, 0x7d, 0x8a, 0xbd,
  0x09, 0x89, 0x14, 0x3e, 0xea, 0x07, 0x93, 0x3c, 0x75, 0x99, 0xf1, 0xbd,
  0xaa, 0xbe, 0x78, 0x3e, 0xc7, 0xb0, 0x56, 0xbe, 0xac, 0xfd, 0x32, 0xbe,
  0x58, 0x61, 0x6a, 0xbc, 0x4d, 0xd7, 0x28, 0xbe, 0x64, 0xe8, 0xe5, 0x3b,
  0xc4, 0xf0, 0x89, 0xbd, 0xe4, 0xf7, 0xfe, 0xbe, 0x48, 0x9a, 0x6b, 0x3c,
  0x28, 0x9f, 0x40, 0xbd, 0xbf, 0x7e, 0x01, 0x3e, 0x81, 0x6b, 0x00, 0x3e,
  0xae, 0x0b, 0xbd, 0x3d, 0x61, 0x24, 0xcd, 0xbd, 0xa5, 0x94, 0x84, 0x3d,
  0x7c, 0xc0, 0x06, 0x3e, 0xdd, 0x5a, 0xe7, 0x3d, 0xc3, 0xaa, 0x1e, 0xbe,
  0x21, 0x68, 0x1c, 0xbe, 0xe0, 0xab, 0xd5, 0xbe, 0x96, 0x15, 0x71, 0xbd,
  0x56, 0xec, 0x7a, 0xbb, 0x33, 0x02, 0x7f, 0x3d, 0x47, 0xae, 0x0d, 0xbf,
  0xab, 0x47, 0x31, 0xbd, 0x76, 0xdc, 0x9b, 0xbd, 0xe3, 0xe5, 0x96, 0x3e,
  0x6d, 0x27, 0xb4, 0xbc, 0xf0, 0x14, 0x79, 0x3e, 0xa8, 0xdf, 0x98, 0xbd,
  0xc3, 0xd5, 0x81, 0x3e, 0xa1, 0xbe, 0xfa, 0x3d, 0xbf, 0x19, 0x3b, 0x3d,
  0xe2, 0xc3, 0x5b, 0xbe, 0x5e, 0x32, 0x3c, 0xbe, 0xee, 0xf8, 0x13, 0x3c,
  0x1f, 0x57, 0xac, 0x3c, 0xe1, 0xe8, 0x23, 0xbe, 0x68, 0x43, 0x6b, 0xbd,
  0xbd, 0xf5, 0xc0, 0xbd, 0x2a, 0x23, 0xb3, 0x3c, 0x2b, 0xb4, 0xac, 0x3b,
  0x52, 0x56, 0x33, 0x3d, 0x69, 0x31, 0x8f, 0x3d, 0x26, 0x5b, 0xb9, 0x3d,
  0x96, 0x05, 0xcc, 0xbb, 0x71, 0xd0, 0xc1, 0x3d, 0xa9, 0x8f, 0x58, 0x3d,
  0x6a, 0xd4, 0x6e, 0xbc, 0x4a, 0xc2, 0xc6, 0xbb, 0x02, 0xc7, 0xe5, 0xbd,
  0x8b, 0x87, 0x04, 0xbe, 0xa4, 0xcc, 0xdb, 0x3d, 0x75, 0x2d, 0x14, 0xbd,
  0x4f, 0xe8, 0x24, 0x3c, 0xf6, 0xe8, 0xf4, 0xbe, 0x45, 0x07, 0x1c, 0xbe,
  0x09, 0x37, 0x08, 0x3e, 0xae, 0x9d, 0x90, 0x3c, 0x8c, 0xd4, 0xa9, 0xbd,
  0xc2, 0x47, 0xf2, 0xbd, 0xa6, 0xbe, 0xd7, 0xbe, 0x60, 0xd5, 0x83, 0x3d,
  0x3b, 0x0b, 0x0c, 0xbe, 0x94, 0x08, 0x76, 0x3d, 0x1f, 0xa3, 0x3a, 0x3d,
  0xa3, 0x8c, 0x86, 0xbe, 0x1f, 0x94, 0x74, 0x3d, 0x23, 0xcd, 0x58, 0xbe,
  0xde, 0x02, 0x5e, 0x3e, 0xe8, 0x34, 0xaf, 0x3c, 0x9d, 0x81, 0xaf, 0xbe,
  0xdb, 0xa4, 0x4e, 0xbe, 0xd3, 0xfb, 0x91, 0x3d, 0x69, 0xa3, 0xa1, 0x3c,
  0xaf, 0x8f, 0x2a, 0x3d, 0x03, 0xa3, 0x7f, 0xbe, 0xf5, 0xf6, 0x70, 0xbe,
  0xa0, 0xef, 0xdb, 0x3c, 0x30, 0x5a, 0x59, 0x3d, 0xff, 0xb6, 0xb0, 0x3e,
  0xb1, 0xe2, 0x33, 0x3c, 0x03, 0x02, 0xef, 0xbd, 0xdc, 0x99, 0x2c, 0xbe,
  0x49, 0x41, 0x4f, 0xbe, 0x8c, 0xbc, 0x82, 0x3e, 0x61, 0x7d, 0x22, 0x3e,
  0x9f, 0x58, 0x21, 0xbe, 0x6f, 0xbf, 0xcf, 0xb9, 0xe5, 0x80, 0x95, 0x3c,
  0x23, 0x43, 0x57, 0x3e, 0x92, 0xa3, 0x7d, 0x3c, 0x87, 0x81, 0xdf, 0xbd,
  0xaf, 0x65, 0x04, 0x3d, 0xca, 0x2f, 0x14, 0x3d, 0x4a, 0x80, 0x0e, 0x3b,
  0x57, 0xaf, 0x8c, 0x3e, 0xde, 0x2b, 0x1e, 0x3e, 0x03, 0x8c, 0x46, 0xbe,
  0x6e, 0x31, 0xd7, 0xbd, 0x92, 0x68, 0x1c, 0xbe, 0xc2, 0xe3, 0x23, 0x3e,
  0x15, 0x26, 0xcc, 0x3d, 0x1b, 0xc2, 0x80, 0xbe, 0xf3, 0x41, 0x3e, 0x3e,
  0x1f, 0xa9, 0xe0, 0x3d, 0x7c, 0x65, 0x63, 0x3e, 0xe9, 0xc9, 0x2d, 0xbd,
  0x0a, 0x3f, 0xd1, 0xbd, 0x19, 0xaf, 0x06, 0x3e, 0xa8, 0x32, 0xc1, 0xbd,
  0x13, 0x9b, 0x0e, 0xbe, 0x8f, 0xe0, 0x8c, 0x3d, 0xaa, 0xc9, 0xd8, 0x3b,
  0x14, 0xf7, 0x8b, 0xbe, 0xc6, 0x8d, 0x5b, 0x3d, 0x2b, 0xa4, 0x48, 0xbe,
  0x0e, 0x9d, 0x1e, 0x3e, 0x56, 0xdd, 0x21, 0x3d, 0x5b, 0x6b, 0x83, 0xbe,
  0x0f, 0xd6, 0x21, 0xbe, 0xb3, 0x46, 0xfa, 0xb9, 0xb8, 0x9b, 0x79, 0x3e,
  0x45, 0x27, 0x35, 0xbb, 0x2e, 0x70, 0x29, 0x3d, 0xd8, 0x30, 0xdc, 0xbd,
  0x7e, 0xf7, 0x99, 0xbd, 0x93, 0x48, 0x2d, 0x3d, 0x28, 0x14, 0x14, 0x3e,
  0x91, 0xbd, 0x72, 0x3d, 0xe4, 0x5f, 0x00, 0x3d, 0x8d, 0x9a, 0x05, 0xbe,
  0x2f, 0x19, 0x12, 0xbe, 0x65, 0x1e, 0x25, 0x3c, 0x68, 0xd8, 0x6b, 0x3d,
  0xb2, 0x3b, 0xca, 0xbe, 0x54, 0x8e, 0x4e, 0xbe, 0x80, 0x8a, 0x2a, 0xbe,
  0x10, 0x4b, 0xc6, 0x3d, 0xcb, 0xf5, 0xca, 0x3c, 0x2c, 0x25, 0x80, 0x3e,
  0x63, 0xa0, 0x20, 0xbe, 0x81, 0x2c, 0x06, 0x3c, 0x5e, 0x70, 0x7a, 0x3e,
  0xad, 0x1b, 0x6a, 0x3d, 0x7f, 0x0b, 0x81, 0xbe, 0x17, 0xfe, 0xb4, 0xbd,
  0x41, 0x23, 0x18, 0x3e, 0xaf, 0x1d, 0x08, 0xbe, 0x29, 0xb5, 0xed, 0xbb,
  0x6c, 0xe8, 0x3c, 0xbd, 0xb1, 0x36, 0x96, 0xbe, 0xcf, 0x95, 0xbb, 0xbd,
  0x7e, 0xb3, 0xfb, 0xbd, 0x3f, 0xc8, 0x42, 0xbd, 0x1e, 0x93, 0x2a, 0x3d,
  0x36, 0x8f, 0x66, 0xbb, 0x0f, 0x65, 0x09, 0xbe, 0x40, 0xff, 0x2e, 0x3e,
  0xfc, 0x39, 0xd0, 0xbd, 0x05, 0x48, 0x62, 0x3d, 0x39, 0xb0, 0x8c, 0x3d,
  0xd3, 0x37, 0x7a, 0xbe, 0x3f, 0x6f, 0x07, 0xbe, 0x90, 0x47, 0x8d, 0x3c,
  0x64, 0x8c, 0xaa, 0xbd, 0x29, 0x60, 0x3f, 0x3d, 0x71, 0x1b, 0x6a, 0x3d,
  0x6a, 0x0a, 0x2e, 0xbc, 0x51, 0xa1, 0x9a, 0xbd, 0x71, 0xc0, 0x62, 0xbe,
  0x0e, 0xa5, 0x98, 0x3d, 0x7b, 0x40, 0xa8, 0xbd, 0xeb, 0xde, 0xf2, 0xbd,
  0x27, 0xae, 0xb7, 0xbe, 0x91, 0xdf, 0x97, 0x3e, 0x25, 0xaf, 0x4f, 0xbe,
  0xe8, 0x3b, 0x26, 0x3e, 0x39, 0x03, 0xc8, 0xbe, 0x80, 0x89, 0x18, 0xbe,
  0xb3, 0xe2, 0x8d, 0x3e, 0xa2, 0xad, 0x82, 0xbe, 0xa4, 0x83, 0x6f, 0xbd,
  0xca, 0xc0, 0xa6, 0x3d, 0xde, 0x9e, 0x6d, 0xbd, 0xc4, 0x49, 0xf9, 0xbd,
  0xc7, 0x80, 0x7c, 0xbe, 0xcf, 0x14, 0x19, 0x3e, 0xc6, 0x89, 0xc6, 0x3d,
  0x64, 0x9c, 0xcd, 0x3e, 0x2f, 0x28, 0x6c, 0x3e, 0xa1, 0x2c, 0x35, 0x3e,
  0xe2, 0xa3, 0x74, 0xbe, 0xe7, 0x6f, 0xfa, 0x3e, 0x0f, 0x23, 0x59, 0xbe,
  0x91, 0xd2, 0xdf, 0xbe, 0x85, 0xcc, 0xd2, 0x3d, 0x58, 0x1b, 0x99, 0xbe,
  0xd0, 0xb6, 0xac, 0x3b, 0x39, 0x58, 0xd3, 0x3d, 0xa8, 0xc1, 0xa5, 0xbd,
  0x55, 0xa4, 0x8f, 0xbe, 0x53, 0x72, 0x90, 0xbd, 0x0a, 0x6e, 0x17, 0x3e,
  0x79, 0x0d, 0x59, 0x3d, 0x7e, 0xbc, 0x0a, 0x3f, 0x8a, 0x71, 0xc9, 0x3e,
  0x3f, 0x20, 0x39, 0x3d, 0x50, 0x12, 0x4f, 0xbe, 0x7f, 0x5b, 0xa2, 0x3e,
  0xc6, 0x61, 0x8a, 0xbc, 0x3d, 0x06, 0xe3, 0xbe, 0x9a, 0xaf, 0x3e, 0x3e,
  0x11, 0x21, 0x4b, 0xbe, 0xde, 0x87, 0x5b, 0xbd, 0xea, 0xc9, 0xdb, 0x3d,
  0x7b, 0x8a, 0x93, 0xbd, 0x81, 0xf4, 0xf4, 0xbd, 0xfb, 0xa7, 0x46, 0xbe,
  0x37, 0x3f, 0xb6, 0x3d, 0xb3, 0xc1, 0x19, 0x3d, 0xa7, 0x84, 0xef, 0x3e,
  0xa6, 0xa0, 0x96, 0x3e, 0x51, 0x3c, 0xe8, 0x3c, 0x41, 0xd1, 0x4d, 0xbe,
  0x1a, 0x04, 0x8a, 0x3e, 0xcf, 0x16, 0x10, 0x3d, 0x21, 0xe6, 0x58, 0x3d,
  0x88, 0x28, 0x13, 0x3e, 0x91, 0x5f, 0x46, 0xbe, 0xdc, 0xcc, 0x08, 0xbd,
  0x35, 0xb8, 0x2e, 0x3d, 0xfd, 0x08, 0xfb, 0xbc, 0x94, 0x5e, 0x61, 0xbe,
  0x87, 0x00, 0x38, 0xbe, 0x09, 0x39, 0x12, 0x3d, 0xa9, 0xf5, 0x77, 0xbd,
  0x2d, 0xa2, 0xaf, 0x3e, 0xd9, 0x26, 0x7a, 0x3d, 0x90, 0xdf, 0x9c, 0xbd,
  0xa2, 0x43, 0x1d, 0xbe, 0xc3, 0x2b, 0xea, 0xbd, 0x45, 0x81, 0xd2, 0x3d,
  0x82, 0x15, 0x31, 0xbe, 0x94, 0xa0, 0x07, 0x3e, 0x8f, 0x54, 0x2a, 0xbe,
  0xa8, 0x2b, 0x77, 0xbd, 0xc1, 0x36, 0x45, 0x3d, 0x5a, 0xd1, 0x28, 0xbd,
  0xeb, 0xd2, 0x25, 0xbe, 0x48, 0x68, 0xc2, 0xbe, 0x29, 0xb6, 0x55, 0xbd,
  0x2b, 0xb0, 0x01, 0xbe, 0x05, 0xeb, 0xd3, 0x3e, 0x51, 0x4e, 0x08, 0xbe,
  0xb9, 0x28, 0x57, 0xbe, 0x3f, 0x93, 0x99, 0xbe, 0x4d, 0x7d, 0x5b, 0xbc,
  0xb1, 0xaf, 0x5d, 0xbe, 0x26, 0x97, 0xae, 0xbe, 0xb0, 0x28, 0x05, 0x3e,
  0xae, 0x84, 0x09, 0xbe, 0x3c, 0x0f, 0x94, 0x3d, 0xef, 0x7e, 0xc9, 0x3b,
  0x20, 0x78, 0x5e, 0x3b, 0x61, 0x56, 0x43, 0xbe, 0x14, 0x64, 0x7c, 0xbe,
  0xac, 0x15, 0x96, 0xbc, 0x42, 0xd8, 0xb1, 0xbc, 0xce, 0x70, 0x73, 0x3b,
  0xa5, 0xe5, 0xd1, 0xbd, 0xdb, 0xa1, 0xcd, 0xbd, 0x3b, 0x5f, 0x2d, 0xbe,
  0x0a, 0x77, 0x43, 0xbe, 0xc5, 0x76, 0xa9, 0x3d, 0x16, 0xd3, 0xea, 0xbd,
  0xb2, 0xb8, 0x9a, 0x39, 0x09, 0xe5, 0x6f, 0xbe, 0x9c, 0xb2, 0x8b, 0xbe,
  0xa8, 0x92, 0x3f, 0xbe, 0x69, 0x63, 0x29, 0xbe, 0xcc, 0xdf, 0x75, 0x3f,
  0xb7, 0xfa, 0x85, 0xbd, 0xb6, 0xcc, 0x21, 0xbe, 0xe1, 0x2f, 0x43, 0xbe,
  0x39, 0xab, 0xb0, 0xbc, 0x53, 0xfd, 0x34, 0xbe, 0x57, 0x77, 0x4c, 0xbe,
  0xa7, 0x7b, 0x5d, 0xbe, 0xe2, 0xa4, 0x43, 0xbe, 0xc2, 0x75, 0xcd, 0x3d,
  0xc7, 0x23, 0x88, 0x3d, 0x7d, 0x64, 0xd5, 0xbd, 0xab, 0xcc, 0x54, 0xbe,
  0x2d, 0x5b, 0xca, 0x3c, 0xb7, 0x88, 0x05, 0x3d, 0x73, 0x30, 0x83, 0xbd,
  0x78, 0x00, 0x8a, 0x3f, 0x5c, 0x89, 0xab, 0x3c, 0x85, 0x96, 0x58, 0xbe,
  0xb9, 0x2b, 0x3f, 0xbc, 0xce, 0x18, 0xb0, 0x3c, 0x78, 0xd5, 0xf3, 0x3d,
  0xd1, 0x98, 0x76, 0xbe, 0xb2, 0x3c, 0x0f, 0xbe, 0x31, 0x05, 0x75, 0x3d,
  0xe2, 0x0e, 0xfa, 0x3d, 0x20, 0x00, 0x5f, 0xbe, 0xf6, 0x4a, 0x4a, 0xbe,
  0x1e, 0x81, 0x46, 0xbd, 0xb5, 0xfd, 0x67, 0xbe, 0x86, 0x10, 0x61, 0xbe,
  0x29, 0x0d, 0x2f, 0xbe, 0xaa, 0xa0, 0x6f, 0x3f, 0x64, 0xf7, 0x3a, 0xbc,
  0x82, 0xdf, 0x69, 0x3d, 0x6f, 0x89, 0x17, 0xbd, 0x25, 0xa9, 0x6f, 0xbe,
  0x05, 0xef, 0x57, 0xbd, 0xca, 0x4a, 0xbc, 0xbd, 0xf9, 0x86, 0x75, 0xbd,
  0x04, 0xd0, 0x47, 0x3d, 0xcf, 0x5a, 0x19, 0xbe, 0xe3, 0xae, 0x5b, 0xbe,
  0xdb, 0x9e, 0x39, 0xbe, 0xdc, 0xf1, 0xcb, 0xbd, 0x5e, 0x8c, 0x5b, 0x3d,
  0xd8, 0xa7, 0xd3, 0xbd, 0x63, 0x03, 0x1a, 0x3e, 0x8c, 0x6a, 0x88, 0x3f,
  0x89, 0x89, 0x0b, 0x3e, 0xfa, 0x53, 0x98, 0x3b, 0xae, 0x32, 0x7f, 0xbe,
  0x10, 0x15, 0xb0, 0xbd, 0x0d, 0x0a, 0x19, 0x3d, 0x37, 0x54, 0x8a, 0xbd,
  0x9d, 0x9e, 0x49, 0xbd, 0x03, 0x28, 0x31, 0xbb, 0xd8, 0x76, 0x10, 0x3e,
  0xe1, 0xf2, 0x41, 0xbd, 0x54, 0x65, 0x15, 0xbe, 0x90, 0x71, 0x88, 0xbe,
  0xd0, 0x18, 0xe9, 0x3c, 0xb0, 0x3b, 0x5a, 0xbd, 0xb9, 0xe8, 0x24, 0x3d,
  0xd7, 0xcf, 0x4d, 0x3f, 0xd7, 0x47, 0x0d, 0x3d, 0xaf, 0x86, 0x69, 0xbd,
  0xf1, 0x3d, 0x08, 0xbe, 0x84, 0x2f, 0xb3, 0xba, 0xb5, 0x03, 0xbf, 0xbd,
  0x14, 0xba, 0xf3, 0xbd, 0xff, 0xcd, 0x2c, 0xbd, 0x87, 0x3c, 0x75, 0xbd,
  0x60, 0xc9, 0x92, 0xbd, 0x75, 0xa5, 0x52, 0xbe, 0x4e, 0xa0, 0x3b, 0xbd,
  0x62, 0x7d, 0x70, 0xbe, 0x0e, 0x0d, 0x15, 0xbe, 0x36, 0x0c, 0x3c, 0xbd,
  0x70, 0x28, 0x10, 0x3e, 0x99, 0x46, 0x76, 0x3f, 0x35, 0x24, 0x7b, 0xbe,
  0x6e, 0xb1, 0x81, 0xbd, 0x7a, 0x92, 0x15, 0xbe, 0xad, 0xcb, 0x3c, 0x3d,
  0x72, 0x9d, 0x90, 0xbd, 0x07, 0x2e, 0x96, 0xbc, 0xd3, 0xbf, 0x1e, 0xbe,
  0xce, 0x62, 0xed, 0x3b, 0x51, 0xec, 0x3b, 0xbd, 0x33, 0x82, 0x3c, 0xbe,
  0x6d, 0xcd, 0x90, 0x3b, 0x9d, 0x67, 0x39, 0xbe, 0x2d, 0x30, 0x62, 0xbe,
  0x25, 0xfb, 0x07, 0xbe, 0x35, 0xa5, 0xbe, 0x3d, 0xf5, 0x00, 0x19, 0x3f,
  0x96, 0xc0, 0x66, 0xbd, 0x6e, 0x5c, 0xbe, 0xbd, 0x3e, 0x78, 0x1c, 0xbe,
  0xeb, 0x9e, 0xfa, 0xbd, 0xfd, 0xe0, 0xd6, 0xbd, 0xe6, 0x27, 0x97, 0x3b,
  0x5f, 0x7e, 0x93, 0x3d, 0x51, 0x37, 0x34, 0xba, 0x8e, 0x0e, 0xd7, 0xbd,
  0xe5, 0x97, 0x73, 0x3c, 0xb9, 0x77, 0xc5, 0xbd, 0x0a, 0x56, 0x4d, 0x3e,
  0xb4, 0x17, 0x97, 0x3b, 0x8f, 0x26, 0xfb, 0x3c, 0x87, 0x8c, 0x01, 0x3d,
  0x98, 0xf2, 0x92, 0x3e, 0xa9, 0x7e, 0xa0, 0xbd, 0xeb, 0x75, 0xd5, 0xbe,
  0x04, 0x53, 0x24, 0xbf, 0xde, 0x0d, 0xd7, 0xbd, 0x64, 0x2d, 0x86, 0x3e,
  0xc6, 0x5e, 0x1a, 0xbf, 0x9a, 0x4d, 0x7a, 0xbd, 0xb7, 0xc6, 0x92, 0xbe,
  0xe3, 0xff, 0xa2, 0x3c, 0x06, 0xc5, 0x63, 0x3e, 0x4e, 0x27, 0x6d, 0xbd,
  0x87, 0x16, 0x24, 0xbe, 0x5b, 0x89, 0xfb, 0xbb, 0xb5, 0xe9, 0xd2, 0x3c,
  0x3b, 0xa2, 0x69, 0xbe, 0xef, 0x12, 0x13, 0x3e, 0x28, 0x43, 0x47, 0xbb,
  0xa6, 0xee, 0x9c, 0xbe, 0x02, 0x17, 0xd0, 0x3d, 0x7f, 0x30, 0x8e, 0x3a,
  0x53, 0xcd, 0xca, 0xbc, 0xa9, 0x13, 0x3f, 0xbe, 0xb6, 0x3f, 0xbf, 0x3d,
  0x5d, 0x70, 0x2b, 0x3e, 0x37, 0x8e, 0x3e, 0xbe, 0x73, 0xc4, 0x77, 0xbc,
  0x18, 0x1a, 0x3e, 0x3d, 0xac, 0xae, 0x31, 0xbe, 0x93, 0xcf, 0x03, 0x3d,
  0x68, 0xd5, 0x36, 0x3c, 0xe0, 0x42, 0x0e, 0x3e, 0x96, 0xe9, 0xa7, 0x3e,
  0x87, 0x65, 0x63, 0xbd, 0xae, 0x50, 0xd4, 0xbe, 0x68, 0xd5, 0x15, 0x3e,
  0x4b, 0xbc, 0xe4, 0x3d, 0x30, 0x92, 0x42, 0xbd, 0x99, 0xde, 0x59, 0x3c,
  0xe7, 0xcd, 0x37, 0x3e, 0xac, 0x9a, 0x5d, 0x3e, 0xd8, 0x2c, 0x9a, 0x3e,
  0x2a, 0x2f, 0xac, 0x3e, 0x01, 0x8c, 0xe4, 0x3c, 0x6b, 0xa7, 0x14, 0xbe,
  0xfe, 0x4c, 0x87, 0x3c, 0xc3, 0xde, 0x98, 0x3c, 0xb4, 0xea, 0xf7, 0x3c,
  0xac, 0x06, 0xb1, 0x3e, 0xf1, 0x1b, 0xc0, 0x3d, 0xf3, 0x17, 0x83, 0xbe,
  0x27, 0x83, 0xea, 0xbb, 0xfd, 0xfb, 0x69, 0x3d, 0xca, 0xe0, 0xae, 0x3e,
  0xde, 0xc6, 0x82, 0xbe, 0xc9, 0x15, 0xef, 0x3d, 0x7c, 0x1a, 0x4c, 0xbd,
  0x42, 0xf1, 0xd2, 0x3e, 0x95, 0x06, 0xed, 0x3e, 0x49, 0xde, 0x05, 0x3e,
  0x01, 0x60, 0x25, 0xbd, 0x87, 0x93, 0x59, 0x3c, 0x84, 0x8d, 0x69, 0x3d,
  0x21, 0x42, 0x08, 0x3d, 0xb2, 0xb2, 0xd9, 0x3e, 0xee, 0xde, 0x01, 0xbe,
  0x2b, 0x5e, 0xd5, 0xbe, 0x0b, 0x8d, 0xc6, 0xbd, 0xfe, 0xcd, 0x96, 0xbc,
  0x1f, 0xbf, 0x97, 0x3e, 0xe9, 0x31, 0x2b, 0xbe, 0x1e, 0x72, 0x67, 0x3d,
  0x2f, 0x1c, 0x4d, 0xbd, 0xf7, 0xaa, 0x4e, 0x3e, 0x49, 0x65, 0xfd, 0x3e,
  0x1a, 0x79, 0xe2, 0x3c, 0x2f, 0x04, 0x84, 0x3d, 0x95, 0x5a, 0xa2, 0xbc,
  0xe7, 0x68, 0xa8, 0x3d, 0x94, 0xb8, 0xb0, 0xbd, 0x38, 0xbf, 0x98, 0x3d,
  0xa7, 0x15, 0x5e, 0xbb, 0x01, 0x2b, 0xa7, 0xbe, 0x09, 0xa7, 0xc7, 0xbe,
  0x2c, 0xa9, 0x23, 0xbe, 0x89, 0x79, 0x7f, 0x3e, 0xa9, 0xdf, 0xb9, 0xbe,
  0x86, 0xe9, 0xc8, 0x3b, 0x3b, 0x01, 0xba, 0xba, 0x27, 0xd5, 0x91, 0x3d,
  0x48, 0xbd, 0x99, 0x3e, 0xe5, 0x47, 0x97, 0xbd, 0x25, 0x1e, 0x4e, 0x3d,
  0xa7, 0x08, 0xc5, 0xbc, 0x98, 0xbf, 0x28, 0x3d, 0x01, 0xb9, 0xd3, 0xbc,
  0xce, 0xfc, 0xf0, 0x3e, 0xa7, 0x6a, 0x42, 0xbd, 0xa2, 0x5d, 0x6e, 0xbe,
  0x98, 0x83, 0x33, 0xbd, 0xd0, 0x76, 0xb9, 0x3a, 0x87, 0x38, 0x8f, 0x3d,
  0x53, 0x96, 0x1f, 0x3b, 0x0d, 0x80, 0x0b, 0x3d, 0x56, 0x85, 0x1e, 0xbd,
  0xc5, 0x14, 0xba, 0x3d, 0xee, 0x2c, 0xb5, 0x3d, 0x06, 0x38, 0xa3, 0x39,
  0x83, 0x0a, 0xcb, 0xbe, 0xb1, 0xcd, 0x31, 0x3c, 0x44, 0x22, 0x4f, 0x3d,
  0x9f, 0x45, 0x6d, 0xbc, 0xb4, 0x48, 0x3f, 0xbe, 0x1d, 0x13, 0x6f, 0x3d,
  0xf6, 0x7c, 0x84, 0x3e, 0x16, 0x8c, 0xee, 0x3d, 0x81, 0x0e, 0xfb, 0x3e,
  0xb9, 0xb6, 0x78, 0xbd, 0x0d, 0x22, 0x58, 0xbd, 0x4c, 0x21, 0xc0, 0x3d,
  0xb7, 0xc1, 0xff, 0x3c, 0x07, 0xcd, 0xbb, 0xbd, 0x4b, 0x64, 0x59, 0xbd,
  0x30, 0x61, 0x30, 0xbd, 0x88, 0xda, 0xa7, 0xbe, 0xe8, 0x88, 0xa9, 0xbe,
  0xa5, 0xf8, 0x6c, 0x3d, 0xe6, 0x8a, 0x74, 0x3d, 0x2a, 0x89, 0x5e, 0xbe,
  0x2e, 0x3e, 0x65, 0x3d, 0x9d, 0x2b, 0x8b, 0xbd, 0xb7, 0x22, 0x3b, 0xbd,
  0x95, 0x66, 0x8e, 0xbe, 0x81, 0x85, 0x12, 0x3e, 0xdb, 0xf3, 0x4c, 0xbe,
  0xd2, 0x16, 0x0c, 0xbf, 0x48, 0x7a, 0x8f, 0xbe, 0xd2, 0x19, 0x91, 0xbd,
  0x85, 0xad, 0xd4, 0xbd, 0xda, 0x12, 0xd5, 0x3c, 0x09, 0xb6, 0x60, 0xbd,
  0x65, 0x34, 0x12, 0xbf, 0x51, 0xc1, 0xf5, 0xbd, 0xac, 0x5c, 0x91, 0xbb,
  0xee, 0x7d, 0xa7, 0xbd, 0x62, 0x4d, 0x9f, 0xbe, 0xe8, 0x90, 0x08, 0xbb,
  0x78, 0x8d, 0xd6, 0x3c, 0x6c, 0x64, 0x73, 0xbe, 0xdd, 0x51, 0x2f, 0xbd,
  0xb0, 0xcc, 0xdd, 0xbc, 0xd5, 0x14, 0xdf, 0xbe, 0x99, 0xa5, 0xbd, 0xbe,
  0x7c, 0x6d, 0x21, 0x3e, 0xbc, 0xaa, 0xcf, 0x3c, 0x36, 0x9f, 0xfc, 0xbb,
  0xa9, 0x19, 0x95, 0xbd, 0xe6, 0x0b, 0xfe, 0xbe, 0x77, 0x21, 0x0f, 0xbe,
  0xe1, 0x48, 0x05, 0xbe, 0xf5, 0x69, 0xb1, 0xbb, 0xb0, 0xe2, 0x06, 0xbf,
  0xe6, 0xdd, 0x7a, 0xbc, 0x66, 0x60, 0x87, 0xbc, 0xe9, 0x70, 0x06, 0xbe,
  0x79, 0x1c, 0x10, 0xbe, 0x1b, 0xa2, 0xc8, 0x3d, 0x44, 0xc3, 0x04, 0xbf,
  0xa9, 0x8c, 0x1c, 0x3e, 0xf7, 0x62, 0x80, 0xbd, 0xf6, 0xf6, 0x3b, 0x3c,
  0xaa, 0xe2, 0x1e, 0x3d, 0x89, 0xfa, 0xac, 0xbe, 0x24, 0x00, 0xb4, 0x3c,
  0x86, 0x52, 0x50, 0xbd, 0x71, 0x46, 0x58, 0xbd, 0xb1, 0x1b, 0xc0, 0x3d,
  0x99, 0xc5, 0x2c, 0xbe, 0x82, 0xd6, 0x8c, 0xbc, 0xcb, 0xdc, 0x91, 0xbb,
  0x16, 0xf9, 0x64, 0x3e, 0x0c, 0xb6, 0xa4, 0x3e, 0x40, 0xf8, 0x97, 0x3c,
  0xd9, 0x4a, 0x3f, 0x3d, 0x91, 0xe2, 0xa2, 0x3e, 0x7e, 0xe8, 0x72, 0x3d,
  0xb5, 0xf5, 0x09, 0xbe, 0xb6, 0x0a, 0x5b, 0xbc, 0xda, 0xe4, 0x82, 0xbe,
  0xd3, 0x1f, 0xcd, 0xbc, 0x4c, 0xd8, 0x23, 0x3d, 0xe8, 0x1e, 0x96, 0x3c,
  0xfb, 0xed, 0xe2, 0x3c, 0x17, 0x0d, 0xad, 0x3c, 0xca, 0x6c, 0x89, 0x3d,
  0x70, 0x66, 0xb0, 0x3c, 0x29, 0x09, 0x86, 0x3e, 0xf1, 0xc5, 0x17, 0xbe,
  0xc6, 0xaf, 0x49, 0x3d, 0xe5, 0x47, 0xde, 0x3c, 0x71, 0xe9, 0x1c, 0x3e,
  0xa2, 0x37, 0xe5, 0xbd, 0x8d, 0x37, 0x14, 0xbe, 0x04, 0x17, 0xa8, 0xbc,
  0x74, 0xa3, 0x44, 0xbc, 0x23, 0x74, 0x78, 0x3d, 0x1d, 0xe4, 0x65, 0x3d,
  0xc7, 0x1d, 0x33, 0xbe, 0x78, 0x0b, 0xb1, 0xba, 0x2d, 0x36, 0x89, 0x3d,
  0x17, 0xbe, 0x28, 0x3c, 0xfe, 0x93, 0x9a, 0x3c, 0xb1, 0xb4, 0xd1, 0x3b,
  0x75, 0x47, 0x8f, 0xbe, 0x7a, 0xca, 0x46, 0x3e, 0xa3, 0x39, 0x13, 0x3e,
  0x98, 0x19, 0x81, 0x3e, 0xa2, 0x05, 0x64, 0x3b, 0xf4, 0x02, 0x8f, 0x3d,
  0xf9, 0x11, 0x98, 0x3d, 0xe6, 0xc8, 0x7b, 0x3e, 0x24, 0x8f, 0x98, 0xbd,
  0x1d, 0x1e, 0x8d, 0xbd, 0x43, 0x22, 0x0b, 0x3e, 0x98, 0x99, 0x35, 0x3d,
  0x62, 0x34, 0xb4, 0x3c, 0x57, 0x05, 0xa4, 0xbe, 0x79, 0x1a, 0x24, 0xbf,
  0x1a, 0x5c, 0x94, 0xbe, 0x7a, 0xb0, 0x47, 0x3e, 0x6d, 0x8d, 0x29, 0xbf,
  0xa3, 0xf5, 0x29, 0x3d, 0x73, 0xe8, 0x98, 0xbe, 0xa5, 0x80, 0x21, 0x3c,
  0x5c, 0x6c, 0x78, 0x3e, 0x87, 0x20, 0x0c, 0xbe, 0x8b, 0x6b, 0x29, 0xbe,
  0xec, 0x50, 0x0f, 0xbb, 0x3f, 0x9c, 0x8b, 0xbd, 0x54, 0x80, 0x97, 0xbd,
  0xb8, 0xe7, 0x02, 0x3e, 0xa3, 0x68, 0xaf, 0x3d, 0x37, 0xb3, 0x39, 0xbe,
  0x0d, 0x53, 0x32, 0xbe, 0x74, 0x90, 0x83, 0xbe, 0x47, 0xd8, 0x57, 0xbe,
  0xee, 0x84, 0x86, 0xbd, 0x57, 0xad, 0x95, 0x3e, 0xfd, 0xd7, 0xc5, 0x3e,
  0xea, 0x1c, 0x39, 0xbd, 0x24, 0xa3, 0x7f, 0x3e, 0x6e, 0xe5, 0x70, 0xbd,
  0x97, 0x28, 0xd9, 0xbd, 0x13, 0xf1, 0x32, 0x3e, 0x80, 0x32, 0xad, 0xbc,
  0x01, 0x32, 0xc7, 0x3d, 0xa6, 0x6d, 0xd7, 0xbd, 0xff, 0x59, 0xa9, 0xbc,
  0xad, 0x2b, 0xa9, 0xbe, 0x74, 0xfa, 0xfc, 0x3d, 0xff, 0xea, 0x18, 0x3d,
  0xcf, 0x94, 0x4f, 0x3e, 0x59, 0xd3, 0x0b, 0x3e, 0x42, 0x0c, 0x8f, 0x3e,
  0xf1, 0x96, 0xfd, 0x3d, 0xba, 0x4f, 0x69, 0x3e, 0x7b, 0xff, 0x8b, 0x3e,
  0x3e, 0x52, 0xb8, 0xbd, 0xc2, 0x35, 0x08, 0x3b, 0x5a, 0x50, 0x92, 0x3d,
  0x25, 0x03, 0x66, 0xbd, 0xe9, 0xb2, 0xfb, 0xbd, 0x91, 0xb6, 0xb0, 0xbd,
  0x7a, 0xba, 0x34, 0x3e, 0x71, 0x7d, 0xbc, 0xbe, 0x44, 0x7e, 0x87, 0xbe,
  0xd8, 0x2f, 0x4a, 0xbe, 0x85, 0x3c, 0x00, 0x3e, 0x75, 0x4a, 0xc6, 0xbe,
  0x3b, 0x3b, 0x84, 0x3e, 0x26, 0xe2, 0xc4, 0xbd, 0x8e, 0x6e, 0x84, 0x3e,
  0x95, 0x40, 0x38, 0x3e, 0xff, 0xa3, 0x65, 0xbc, 0x04, 0xbf, 0x36, 0xbb,
  0x8b, 0xfd, 0x96, 0xbd, 0xbd, 0x78, 0x6a, 0xbd, 0x2f, 0x84, 0x16, 0x3d,
  0xd2, 0xbd, 0xf1, 0xbc, 0x99, 0x3b, 0x3f, 0x3e, 0xff, 0x55, 0xbe, 0xbe,
  0xf2, 0xbe, 0x0b, 0xbd, 0x4f, 0x07, 0x90, 0xbe, 0x01, 0x47, 0x90, 0x3e,
  0xdd, 0x36, 0x05, 0xbf, 0xaf, 0x97, 0x35, 0x3e, 0x3b, 0x09, 0xcb, 0xbe,
  0x9f, 0xa4, 0x3a, 0x3e, 0x05, 0x9d, 0xe8, 0x3e, 0x2f, 0xea, 0x8b, 0x3d,
  0xea, 0xf5, 0x69, 0x3d, 0xca, 0x0e, 0x9f, 0x3c, 0xe0, 0xa1, 0xc1, 0x3b,
  0x5e, 0x4a, 0xf4, 0xbd, 0xaa, 0xf1, 0x3d, 0xbe, 0xb8, 0x09, 0x80, 0x3e,
  0x44, 0xdc, 0xe5, 0xbe, 0x9f, 0x97, 0x63, 0xbe, 0x45, 0xdd, 0xd6, 0xbe,
  0x17, 0xfa, 0x12, 0x3f, 0x7c, 0x64, 0x8f, 0xbe, 0x34, 0xb6, 0xfe, 0x3d,
  0x71, 0xf3, 0x62, 0xbe, 0x4f, 0xdb, 0xb4, 0x3d, 0x39, 0x64, 0xef, 0x3e,
  0x18, 0x90, 0xc3, 0xbd, 0xb8, 0x6a, 0xd5, 0xbc, 0x33, 0xf2, 0x24, 0x3d,
  0xa2, 0xe1, 0x65, 0xbc, 0x92, 0x3d, 0x90, 0x3d, 0xae, 0xb4, 0xe8, 0xbd,
  0x87, 0x64, 0x83, 0x3d, 0x93, 0x56, 0xa6, 0xbe, 0xcf, 0x26, 0x5f, 0x3d,
  0xc2, 0xe0, 0x28, 0xbe, 0xf1, 0x3a, 0xc0, 0x3d, 0x84, 0xab, 0x8e, 0xbe,
  0xf1, 0xbb, 0x2e, 0x3e, 0x59, 0x17, 0x18, 0x3d, 0x19, 0x1d, 0x29, 0x3e,
  0xa1, 0x90, 0x10, 0x3e, 0x44, 0xba, 0x62, 0xbe, 0x82, 0x9c, 0xcf, 0xbe,
  0x4c, 0x00, 0xc4, 0xbe, 0x69, 0xe8, 0x1b, 0x3c, 0x9b, 0x06, 0x74, 0xbb,
  0x23, 0xa2, 0x33, 0x3f, 0x2a, 0x6e, 0xd5, 0xbd, 0x3d, 0xd6, 0x96, 0xbe,
  0x62, 0xf2, 0x7b, 0xbb, 0xc0, 0x46, 0x56, 0xbe, 0x90, 0xe9, 0x33, 0x3d,
  0x40, 0xdf, 0x81, 0x3c, 0x65, 0x69, 0x09, 0xbf, 0xfe, 0xd4, 0xe2, 0xbe,
  0x98, 0x64, 0x13, 0xbe, 0xfe, 0xf5, 0xbf, 0x3c, 0x34, 0xef, 0x41, 0xbe,
  0x53, 0x05, 0x82, 0xbe, 0xf4, 0x7b, 0xaa, 0xbe, 0x52, 0x93, 0x5f, 0xbd,
  0xba, 0x24, 0x25, 0xbe, 0xca, 0x5f, 0x2d, 0x3f, 0x3f, 0x0d, 0x02, 0xbe,
  0x35, 0x4b, 0xce, 0xbe, 0x5c, 0x32, 0xbd, 0x3c, 0x11, 0xe0, 0xaa, 0x3b,
  0x80, 0xfa, 0x81, 0x3d, 0x39, 0x81, 0x1a, 0xbe, 0xd7, 0x66, 0xef, 0xbe,
  0xbb, 0xa3, 0x8a, 0xbe, 0x08, 0x84, 0xfd, 0x3c, 0x2f, 0x34, 0x10, 0x3c,
  0x43, 0x88, 0xc9, 0xbd, 0x91, 0x32, 0x94, 0xbd, 0x9f, 0xb9, 0x6d, 0xbe,
  0x03, 0x9c, 0xd0, 0xbd, 0xa2, 0x83, 0xe5, 0xbd, 0x8c, 0x57, 0x58, 0x3f,
  0x6b, 0x88, 0x44, 0xbe, 0x73, 0x19, 0x8a, 0xbe, 0xbc, 0xe8, 0x36, 0xbd,
  0x7c, 0x27, 0xea, 0xbc, 0xd4, 0xb2, 0x87, 0xbe, 0x6a, 0x00, 0xde, 0xbd,
  0xbb, 0x19, 0xb1, 0xbe, 0xb1, 0x8a, 0xc6, 0xbe, 0x6e, 0x42, 0xd7, 0xbc,
  0xc4, 0x0e, 0x49, 0xbe, 0xb9, 0xc8, 0x7a, 0xbd, 0x95, 0xbb, 0x88, 0xbe,
  0xc7, 0x0c, 0x1e, 0xbf, 0xb2, 0x97, 0x80, 0xbd, 0xf6, 0x2f, 0x0c, 0xbe,
  0x15, 0x32, 0x52, 0x3f, 0x86, 0x78, 0x50, 0xbe, 0x52, 0x31, 0xf7, 0xbe,
  0xac, 0x92, 0x5a, 0xbd, 0x02, 0xb8, 0x12, 0xbe, 0x1d, 0x33, 0x4d, 0x3d,
  0xfb, 0x2b, 0xa1, 0xbd, 0x5f, 0xb5, 0xd7, 0xbe, 0x6b, 0xb8, 0x89, 0xbe,
  0x86, 0x05, 0x08, 0xbe, 0x93, 0xa5, 0xd9, 0xbc, 0xf7, 0xca, 0xa6, 0xbd,
  0xab, 0xa2, 0xe3, 0xbd, 0xb0, 0x69, 0x98, 0xbc, 0x91, 0xa7, 0x38, 0xbd,
  0x76, 0x7e, 0x0c, 0x3e, 0x02, 0x1f, 0x30, 0x3f, 0xca, 0x34, 0x6f, 0x3b,
  0xa3, 0xec, 0xae, 0xbd, 0x05, 0x57, 0xa7, 0xbd, 0xc6, 0x87, 0x5c, 0xbe,
  0xa2, 0x89, 0x54, 0x3e, 0xd6, 0x0e, 0x10, 0x3e, 0x2b, 0xbe, 0x57, 0x3b,
  0xf6, 0x35, 0x0d, 0x3e, 0x8c, 0x72, 0x82, 0xbe, 0x6b, 0x58, 0x1b, 0x3c,
  0xdf, 0xec, 0xb6, 0xbd, 0x41, 0xa6, 0xae, 0xbe, 0x66, 0x5e, 0xa9, 0xbc,
  0xce, 0xb1, 0x79, 0xbd, 0x0f, 0x69, 0x10, 0x3e, 0x89, 0xb7, 0x12, 0x3f,
  0x92, 0xf9, 0x11, 0x3e, 0x8b, 0x4a, 0x5e, 0x3e, 0xe5, 0x4c, 0x10, 0x3c,
  0x8b, 0xa1, 0xda, 0x3d, 0x08, 0xd5, 0x85, 0x3c, 0x16, 0x5d, 0x7f, 0x3e,
  0xa1, 0x71, 0x05, 0x3e, 0x2e, 0xf8, 0xc7, 0x3d, 0x65, 0x0a, 0xcb, 0xbd,
  0xab, 0x11, 0x15, 0xbe, 0xc4, 0xc8, 0x84, 0xbe, 0xb7, 0x1f, 0xe0, 0xbd,
  0xc3, 0x45, 0x17, 0x3e, 0x3a, 0x38, 0xbb, 0xbc, 0xf0, 0xdb, 0x6f, 0x3d,
  0xf5, 0xf8, 0x22, 0x3f, 0xed, 0x19, 0x97, 0x3d, 0x06, 0x37, 0x80, 0xbd,
  0x13, 0x83, 0xfd, 0xbc, 0xa4, 0x53, 0x30, 0x3e, 0x6c, 0x14, 0x8e, 0xbd,
  0x75, 0x06, 0x21, 0x3e, 0x09, 0x3c, 0x0a, 0x3e, 0x05, 0x8e, 0x90, 0x3e,
  0x94, 0xf4, 0xc7, 0xbc, 0x27, 0x85, 0xff, 0xbd, 0xc9, 0xa7, 0xab, 0x3c,
  0x8b, 0xb9, 0xd0, 0xbd, 0x03, 0x92, 0xcc, 0xbc, 0xc5, 0x6a, 0x67, 0xbc,
  0x10, 0xd9, 0x4a, 0xbe, 0x01, 0x1d, 0x3b, 0x3f, 0xdc, 0xc7, 0x2b, 0x3d,
  0xc4, 0x36, 0x66, 0x3e, 0x68, 0xe9, 0xd5, 0x3d, 0xe7, 0xaf, 0xf8, 0x3d,
  0x39, 0x95, 0x1a, 0x3d, 0x37, 0x12, 0x15, 0xbe, 0x74, 0x38, 0x73, 0x3d,
  0xbb, 0x5c, 0x34, 0x3d, 0xcf, 0x3a, 0xa7, 0x3c, 0x92, 0x30, 0xea, 0x3d,
  0x22, 0x18, 0x0f, 0xbe, 0xaf, 0x21, 0xb3, 0xbd, 0x5b, 0xff, 0xbe, 0x3a,
  0x97, 0x09, 0xf9, 0xb9, 0xd8, 0x20, 0x06, 0xbe, 0xdb, 0x74, 0x87, 0x3f,
  0xd7, 0xa5, 0xf5, 0x3d, 0x1c, 0x83, 0x40, 0xbe, 0xf6, 0x9e, 0xf5, 0x3b,
  0xea, 0x77, 0xc4, 0xbd, 0x94, 0x95, 0x39, 0x3e, 0x13, 0x32, 0x61, 0xbe,
  0xde, 0x47, 0x87, 0xbb, 0xe9, 0xc6, 0xc3, 0xbe, 0x52, 0xf5, 0x2e, 0x3e,
  0x4f, 0x4b, 0x42, 0x3e, 0x26, 0x0c, 0x50, 0xbc, 0x3d, 0x67, 0x4b, 0x3d,
  0xce, 0xff, 0x47, 0xbc, 0x52, 0x69, 0x4a, 0x3c, 0xe0, 0x61, 0xff, 0xbb,
  0xc2, 0xe4, 0x87, 0x3f, 0x52, 0xc3, 0xbb, 0xbc, 0x99, 0x9c, 0xb7, 0xbe,
  0x43, 0x55, 0x83, 0xbd, 0x4d, 0x5d, 0xe6, 0xbe, 0x6f, 0xd4, 0x86, 0x3e,
  0x4c, 0xf1, 0xe8, 0xbd, 0xfa, 0x27, 0xb6, 0x3d, 0x1a, 0x9a, 0x39, 0xbe,
  0x8d, 0xff, 0x9f, 0xbd, 0x4a, 0xef, 0x4a, 0x3e, 0x45, 0x5f, 0x47, 0x3d,
  0x04, 0x45, 0x93, 0xbc, 0x05, 0x04, 0xd3, 0xbd, 0xcf, 0x1e, 0x4a, 0xbd,
  0x8b, 0xb6, 0x3d, 0xbd, 0x53, 0x57, 0xa2, 0x3f, 0xda, 0x7c, 0xee, 0xbc,
  0xd6, 0xe8, 0x87, 0xbe, 0xbd, 0xe3, 0xae, 0xbd, 0x51, 0x1d, 0xeb, 0xbe,
  0xc8, 0x25, 0x7e, 0x3d, 0x29, 0x07, 0xd5, 0x3d, 0xea, 0x2d, 0xac, 0xbc,
  0xf1, 0x52, 0xf7, 0x3c, 0xad, 0x96, 0xbf, 0x3d, 0x39, 0xa7, 0x7a, 0xbd,
  0x7c, 0xd5, 0x6e, 0x3c, 0x95, 0x1b, 0x14, 0xbc, 0xb7, 0x1a, 0x2f, 0xbd,
  0xed, 0x92, 0xbd, 0xbc, 0x3e, 0x21, 0x91, 0x3c, 0x6f, 0x8a, 0x8f, 0x3f,
  0x5c, 0x85, 0x8a, 0x3c, 0x74, 0xc3, 0x7f, 0xbd, 0x86, 0x48, 0xf0, 0xbc,
  0xd6, 0xb5, 0x6b, 0xbd, 0xc6, 0xf7, 0xa5, 0xbb, 0x6f, 0xd6, 0xcd, 0x3d,
  0x6e, 0xba, 0xce, 0x3d, 0x08, 0x2c, 0x8d, 0x3e, 0xb7, 0xe2, 0x91, 0x3d,
  0x08, 0x7b, 0x12, 0x3d, 0xae, 0x5d, 0x9f, 0xbd, 0x26, 0xdb, 0x6c, 0x3c,
  0x4f, 0x3d, 0x5d, 0x3d, 0xe7, 0x13, 0x9a, 0x3a, 0x82, 0x98, 0x4a, 0xbd,
  0xc3, 0x1f, 0x91, 0x3f, 0x3d, 0x50, 0xb2, 0x3d, 0x5b, 0x4c, 0x0b, 0xbd,
  0xb3, 0xe9, 0x15, 0x3b, 0x19, 0x2f, 0x7e, 0x3c, 0x60, 0x50, 0xa2, 0xbd,
  0x38, 0xba, 0x7c, 0x3e, 0xef, 0x09, 0x29, 0x3d, 0xc4, 0x7c, 0x22, 0x3e,
  0x25, 0x87, 0x23, 0x3c, 0x62, 0xbe, 0xa9, 0x3d, 0x62, 0x56, 0x9e, 0xbc,
  0x93, 0x41, 0x6b, 0x3c, 0xa6, 0x88, 0x75, 0x3c, 0x68, 0x2b, 0xc2, 0x3c,
  0xa9, 0xe1, 0x37, 0x3d, 0xf4, 0x46, 0x31, 0x3f, 0x3b, 0x44, 0xa6, 0x3d,
  0x99, 0xca, 0x82, 0xbd, 0xec, 0x8c, 0x86, 0xbd, 0x2a, 0x4d, 0x3b, 0xbd,
  0xb0, 0xa8, 0xb5, 0xbd, 0x77, 0xd4, 0x17, 0xbe, 0xc7, 0x80, 0xcf, 0x3d,
  0x72, 0x62, 0x50, 0x3e, 0xee, 0xe9, 0x28, 0x3c, 0xbc, 0xf4, 0x7a, 0x3d,
  0x01, 0xe7, 0x05, 0xbe, 0x62, 0xfd, 0xff, 0xff, 0x10, 0x00, 0x00, 0x00,
  0x07, 0x00, 0x00, 0x00, 0x14, 0x00, 0x00, 0x00, 0x2c, 0x00, 0x00, 0x00,
  0x02, 0x00, 0x00, 0x00, 0x10, 0x00, 0x00, 0x00, 0x70, 0x00, 0x00, 0x00,
  0x17, 0x00, 0x00, 0x00, 0x73, 0x65, 0x71, 0x75, 0x65, 0x6e, 0x74, 0x69,
  0x61, 0x6c, 0x2f, 0x64, 0x65, 0x6e, 0x73, 0x65, 0x2f, 0x4d, 0x61, 0x74,
  0x4d, 0x75, 0x6c, 0x00, 0xcc, 0xfc, 0xff, 0xff, 0xd6, 0xfd, 0xff, 0xff,
  0x04, 0x00, 0x00, 0x00, 0x08, 0x00, 0x00, 0x00, 0xff, 0xff, 0xff, 0xff,
  0x70, 0x00, 0x00, 0x00, 0x00, 0x00, 0x0e, 0x00, 0x18, 0x00, 0x08, 0x00,
  0x07, 0x00, 0x0c, 0x00, 0x10, 0x00, 0x14, 0x00, 0x0e, 0x00, 0x00, 0x00,
  0x00, 0x00, 0x00, 0x02, 0x10, 0x00, 0x00, 0x00, 0x06, 0x00, 0x00, 0x00,
  0x10, 0x00, 0x00, 0x00, 0x2c, 0x00, 0x00, 0x00, 0x01, 0x00, 0x00, 0x00,
  0x02, 0x00, 0x00, 0x00, 0x18, 0x00, 0x00, 0x00, 0x73, 0x65, 0x71, 0x75,
  0x65, 0x6e, 0x74, 0x69, 0x61, 0x6c, 0x2f, 0x66, 0x6c, 0x61, 0x74, 0x74,
  0x65, 0x6e, 0x2f, 0x43, 0x6f, 0x6e, 0x73, 0x74, 0x00, 0x00, 0x00, 0x00,
  0x34, 0xfd, 0xff, 0xff, 0x3e, 0xfe, 0xff, 0xff, 0x04, 0x00, 0x00, 0x00,
  0x10, 0x00, 0x00, 0x00, 0x73, 0x6f, 0x3b, 0xc0, 0xde, 0xcc, 0x80, 0xc0,
  0x2b, 0xfc, 0x9a, 0x3f, 0xea, 0x8f, 0x8d, 0x3f, 0x26, 0xfe, 0xff, 0xff,
  0x10, 0x00, 0x00, 0x00, 0x05, 0x00, 0x00, 0x00, 0x10, 0x00, 0x00, 0x00,
  0x44, 0x00, 0x00, 0x00, 0x01, 0x00, 0x00, 0x00, 0x04, 0x00, 0x00, 0x00,
  0x32, 0x00, 0x00, 0x00, 0x73, 0x65, 0x71, 0x75, 0x65, 0x6e, 0x74, 0x69,
  0x61, 0x6c, 0x2f, 0x64, 0x65, 0x6e, 0x73, 0x65, 0x5f, 0x31, 0x2f, 0x42,
  0x69, 0x61, 0x73, 0x41, 0x64, 0x64, 0x2f, 0x52, 0x65, 0x61, 0x64, 0x56,
  0x61, 0x72, 0x69, 0x61, 0x62, 0x6c, 0x65, 0x4f, 0x70, 0x2f, 0x72, 0x65,
  0x73, 0x6f, 0x75, 0x72, 0x63, 0x65, 0x00, 0x00, 0xa8, 0xfd, 0xff, 0xff,
  0xb2, 0xfe, 0xff, 0xff, 0x04, 0x00, 0x00, 0x00, 0x40, 0x00, 0x00, 0x00,
  0x08, 0xa5, 0x9f, 0x3f, 0x2a, 0x32, 0x8e, 0xbe, 0x83, 0xac, 0xb0, 0xbd,
  0x2b, 0x50, 0x47, 0x40, 0xed, 0xad, 0xce, 0x3e, 0x19, 0x14, 0x88, 0xbe,
  0xa1, 0xf3, 0x75, 0xbf, 0xbf, 0xc5, 0x8d, 0xba, 0xfd, 0x6a, 0x5b, 0xbe,
  0xb8, 0x16, 0x26, 0x40, 0xbc, 0xd2, 0xf7, 0x3e, 0xb3, 0x6f, 0xa9, 0xbd,
  0x78, 0x2b, 0x85, 0x3e, 0xe7, 0x2d, 0x98, 0xbf, 0x99, 0x73, 0x29, 0xbf,
  0xcd, 0x8a, 0xef, 0xbf, 0xca, 0xfe, 0xff, 0xff, 0x10, 0x00, 0x00, 0x00,
  0x04, 0x00, 0x00, 0x00, 0x10, 0x00, 0x00, 0x00, 0x44, 0x00, 0x00, 0x00,
  0x01, 0x00, 0x00, 0x00, 0x10, 0x00, 0x00, 0x00, 0x30, 0x00, 0x00, 0x00,
  0x73, 0x65, 0x71, 0x75, 0x65, 0x6e, 0x74, 0x69, 0x61, 0x6c, 0x2f, 0x64,
  0x65, 0x6e, 0x73, 0x65, 0x2f, 0x42, 0x69, 0x61, 0x73, 0x41, 0x64, 0x64,
  0x2f, 0x52, 0x65, 0x61, 0x64, 0x56, 0x61, 0x72, 0x69, 0x61, 0x62, 0x6c,
  0x65, 0x4f, 0x70, 0x2f, 0x72, 0x65, 0x73, 0x6f, 0x75, 0x72, 0x63, 0x65,
  0x00, 0x00, 0x00, 0x00, 0x4c, 0xfe, 0xff, 0xff, 0x56, 0xff, 0xff, 0xff,
  0x04, 0x00, 0x00, 0x00, 0x40, 0x00, 0x00, 0x00, 0xad, 0xd7, 0x2b, 0xbf,
  0x26, 0x8c, 0x8e, 0xbe, 0x4d, 0xff, 0x3b, 0x3e, 0x21, 0x36, 0xcb, 0xbe,
  0xa4, 0x29, 0x7e, 0x40, 0x75, 0x93, 0xcc, 0xbf, 0x3c, 0x5e, 0x83, 0xbe,
  0x91, 0x9c, 0x91, 0xbf, 0x96, 0x8e, 0x7f, 0xbf, 0xa0, 0x72, 0x6b, 0xbf,
  0x32, 0x9c, 0x7e, 0xbe, 0xc4, 0x26, 0xcc, 0xbf, 0x6f, 0xa5, 0x96, 0xbf,
  0x09, 0x46, 0xc1, 0xbf, 0xb8, 0x21, 0xfc, 0xbf, 0xa4, 0xb2, 0x71, 0x3f,
  0x6e, 0xff, 0xff, 0xff, 0x10, 0x00, 0x00, 0x00, 0x03, 0x00, 0x00, 0x00,
  0x10, 0x00, 0x00, 0x00, 0x48, 0x00, 0x00, 0x00, 0x01, 0x00, 0x00, 0x00,
  0x10, 0x00, 0x00, 0x00, 0x33, 0x00, 0x00, 0x00, 0x73, 0x65, 0x71, 0x75,
  0x65, 0x6e, 0x74, 0x69, 0x61, 0x6c, 0x2f, 0x63, 0x6f, 0x6e, 0x76, 0x32,
  0x64, 0x5f, 0x31, 0x2f, 0x42, 0x69, 0x61, 0x73, 0x41, 0x64, 0x64, 0x2f,
  0x52, 0x65, 0x61, 0x64, 0x56, 0x61, 0x72, 0x69, 0x61, 0x62, 0x6c, 0x65,
  0x4f, 0x70, 0x2f, 0x72, 0x65, 0x73, 0x6f, 0x75, 0x72, 0x63, 0x65, 0x00,
  0x04, 0x00, 0x06, 0x00, 0x04, 0x00, 0x00, 0x00, 0x00, 0x00, 0x06, 0x00,
  0x08, 0x00, 0x04, 0x00, 0x06, 0x00, 0x00, 0x00, 0x04, 0x00, 0x00, 0x00,
  0x20, 0x00, 0x00, 0x00, 0xe5, 0xf3, 0x94, 0xbf, 0x6f, 0xbc, 0xe7, 0xbf,
  0x36, 0x50, 0x7d, 0xbf, 0x00, 0x04, 0xd3, 0xbf, 0x88, 0xec, 0x6f, 0x3e,
  0x50, 0xa0, 0x27, 0xbf, 0xf3, 0x93, 0x6a, 0xbf, 0x08, 0x0c, 0x34, 0xbd,
  0x00, 0x00, 0x0e, 0x00, 0x14, 0x00, 0x04, 0x00, 0x00, 0x00, 0x08, 0x00,
  0x0c, 0x00, 0x10, 0x00, 0x0e, 0x00, 0x00, 0x00, 0x10, 0x00, 0x00, 0x00,
  0x02, 0x00, 0x00, 0x00, 0x10, 0x00, 0x00, 0x00, 0x44, 0x00, 0x00, 0x00,
  0x01, 0x00, 0x00, 0x00, 0x08, 0x00, 0x00, 0x00, 0x31, 0x00, 0x00, 0x00,
  0x73, 0x65, 0x71, 0x75, 0x65, 0x6e, 0x74, 0x69, 0x61, 0x6c, 0x2f, 0x63,
  0x6f, 0x6e, 0x76, 0x32, 0x64, 0x2f, 0x42, 0x69, 0x61, 0x73, 0x41, 0x64,
  0x64, 0x2f, 0x52, 0x65, 0x61, 0x64, 0x56, 0x61, 0x72, 0x69, 0x61, 0x62,
  0x6c, 0x65, 0x4f, 0x70, 0x2f, 0x72, 0x65, 0x73, 0x6f, 0x75, 0x72, 0x63,
  0x65, 0x00, 0x00, 0x00, 0x90, 0xff, 0xff, 0xff, 0x14, 0x00, 0x18, 0x00,
  0x04, 0x00, 0x00, 0x00, 0x08, 0x00, 0x0c, 0x00, 0x10, 0x00, 0x00, 0x00,
  0x00, 0x00, 0x14, 0x00, 0x14, 0x00, 0x00, 0x00, 0x14, 0x00, 0x00, 0x00,
  0x01, 0x00, 0x00, 0x00, 0x20, 0x00, 0x00, 0x00, 0x44, 0x00, 0x00, 0x00,
  0x2c, 0x00, 0x00, 0x00, 0x04, 0x00, 0x00, 0x00, 0x01, 0x00, 0x00, 0x00,
  0x40, 0x00, 0x00, 0x00, 0x03, 0x00, 0x00, 0x00, 0x01, 0x00, 0x00, 0x00,
  0x0c, 0x00, 0x00, 0x00, 0x63, 0x6f, 0x6e, 0x76, 0x32, 0x64, 0x5f, 0x69,
  0x6e, 0x70, 0x75, 0x74, 0x00, 0x00, 0x00, 0x00, 0x04, 0x00, 0x00, 0x00,
  0xff, 0xff, 0xff, 0xff, 0x40, 0x00, 0x00, 0x00, 0x03, 0x00, 0x00, 0x00,
  0x01, 0x00, 0x00, 0x00, 0xfc, 0xff, 0xff, 0xff, 0x04, 0x00, 0x04, 0x00,
  0x04, 0x00, 0x00, 0x00
};

unsigned int model_tflite_len = 13120;// Fill the int in `src/model.cc` here
